{
  "version": "1.0",
  "truncation": null,
  "padding": null,
  "added_tokens": [
    {
      "id": 0,
      "content": "PAD",
      "single_word": false,
      "lstrip": false,
      "rstrip": false,
      "normalized": false,
      "special": true
    },
    {
      "id": 1,
      "content": "UNK",
      "single_word": false,
      "lstrip": false,
      "rstrip": false,
      "normalized": false,
      "special": true
    }
  ],
  "normalizer": null,
  "pre_tokenizer": {
    "type": "Whitespace"
  },
  "post_processor": null,
  "decoder": null,
  "model": {
    "type": "BPE",
    "dropout": null,
    "unk_token": null,
    "continuing_subword_prefix": null,
    "end_of_word_suffix": null,
    "fuse_unk": false,
    "byte_fallback": false,
    "vocab": {
      "PAD": 0,
      "UNK": 1,
      "!": 2,
      "#": 3,
      "$": 4,
      "&": 5,
      "'": 6,
      "*": 7,
      "+": 8,
      ",": 9,
      "-": 10,
      ".": 11,
      "/": 12,
      "0": 13,
      "1": 14,
      "2": 15,
      "3": 16,
      "4": 17,
      "5": 18,
      "6": 19,
      "7": 20,
      "8": 21,
      "9": 22,
      ":": 23,
      ";": 24,
      "=": 25,
      "?": 26,
      "A": 27,
      "B": 28,
      "C": 29,
      "D": 30,
      "E": 31,
      "F": 32,
      "G": 33,
      "H": 34,
      "I": 35,
      "J": 36,
      "K": 37,
      "L": 38,
      "M": 39,
      "N": 40,
      "O": 41,
      "P": 42,
      "Q": 43,
      "R": 44,
      "S": 45,
      "T": 46,
      "U": 47,
      "V": 48,
      "W": 49,
      "X": 50,
      "Y": 51,
      "Z": 52,
      "\\": 53,
      "`": 54,
      "a": 55,
      "b": 56,
      "c": 57,
      "d": 58,
      "e": 59,
      "f": 60,
      "g": 61,
      "h": 62,
      "i": 63,
      "j": 64,
      "k": 65,
      "l": 66,
      "m": 67,
      "n": 68,
      "o": 69,
      "p": 70,
      "q": 71,
      "r": 72,
      "s": 73,
      "t": 74,
      "u": 75,
      "v": 76,
      "w": 77,
      "x": 78,
      "y": 79,
      "z": 80,
      "帽": 81,
      "忙": 82,
      "猫": 83,
      "眉": 84,
      "聽": 85,
      "芒": 86,
      "茂": 87,
      "茅": 88,
      "茫": 89,
      "谩": 90,
      "贸": 91,
      "铆": 92,
      "th": 93,
      "in": 94,
      "an": 95,
      "er": 96,
      "re": 97,
      "en": 98,
      "at": 99,
      "the": 100,
      "is": 101,
      "on": 102,
      "es": 103,
      "ing": 104,
      "or": 105,
      "it": 106,
      "ou": 107,
      "and": 108,
      "al": 109,
      "of": 110,
      "ar": 111,
      "st": 112,
      "ly": 113,
      "to": 114,
      "ed": 115,
      "ic": 116,
      "il": 117,
      "as": 118,
      "om": 119,
      "le": 120,
      "ch": 121,
      "mo": 122,
      "el": 123,
      "ct": 124,
      "ent": 125,
      "ion": 126,
      "he": 127,
      "se": 128,
      "ve": 129,
      "that": 130,
      "ut": 131,
      "be": 132,
      "un": 133,
      "ma": 134,
      "vi": 135,
      "ra": 136,
      "gh": 137,
      "ul": 138,
      "de": 139,
      "lo": 140,
      "im": 141,
      "ab": 142,
      "for": 143,
      "ver": 144,
      "ce": 145,
      "fil": 146,
      "li": 147,
      "ro": 148,
      "film": 149,
      "ith": 150,
      "com": 151,
      "wh": 152,
      "no": 153,
      "su": 154,
      "The": 155,
      "..": 156,
      "ke": 157,
      "ad": 158,
      "with": 159,
      "ri": 160,
      "movi": 161,
      "ol": 162,
      "out": 163,
      "am": 164,
      "ess": 165,
      "its": 166,
      "ers": 167,
      "ir": 168,
      "la": 169,
      "you": 170,
      "act": 171,
      "di": 172,
      "ge": 173,
      "movie": 174,
      "but": 175,
      "sh": 176,
      "ter": 177,
      "fe": 178,
      "ex": 179,
      "ne": 180,
      "do": 181,
      "one": 182,
      "od": 183,
      "pe": 184,
      "are": 185,
      "est": 186,
      "um": 187,
      "ght": 188,
      "po": 189,
      "con": 190,
      "his": 191,
      "per": 192,
      "ous": 193,
      "ck": 194,
      "all": 195,
      "sc": 196,
      "ay": 197,
      "ta": 198,
      "so": 199,
      "em": 200,
      "art": 201,
      "ill": 202,
      "this": 203,
      "ation": 204,
      "ful": 205,
      "ere": 206,
      "ive": 207,
      "ha": 208,
      "ur": 209,
      "rom": 210,
      "RB": 211,
      "ant": 212,
      "ally": 213,
      "qu": 214,
      "It": 215,
      "us": 216,
      "wor": 217,
      "ure": 218,
      "man": 219,
      "go": 220,
      "ld": 221,
      "...": 222,
      "id": 223,
      "pre": 224,
      "ap": 225,
      "ome": 226,
      "ate": 227,
      "pro": 228,
      "ory": 229,
      "ow": 230,
      "able": 231,
      "by": 232,
      "ist": 233,
      "ity": 234,
      "not": 235,
      "ust": 236,
      "we": 237,
      "ough": 238,
      "thing": 239,
      "tim": 240,
      "ell": 241,
      "char": 242,
      "has": 243,
      "ther": 244,
      "than": 245,
      "--": 246,
      "sp": 247,
      "like": 248,
      "some": 249,
      "ast": 250,
      "ag": 251,
      "more": 252,
      "ev": 253,
      "about": 254,
      "der": 255,
      "ig": 256,
      "int": 257,
      "ould": 258,
      "op": 259,
      "ind": 260,
      "up": 261,
      "end": 262,
      "from": 263,
      "et": 264,
      "ss": 265,
      "ine": 266,
      "have": 267,
      "very": 268,
      "ard": 269,
      "ight": 270,
      "ts": 271,
      "mak": 272,
      "most": 273,
      "if": 274,
      "fun": 275,
      "who": 276,
      "rect": 277,
      "itt": 278,
      "story": 279,
      "ok": 280,
      "ence": 281,
      "bo": 282,
      "te": 283,
      "au": 284,
      "pt": 285,
      "ru": 286,
      "way": 287,
      "charact": 288,
      "ac": 289,
      "ich": 290,
      "oun": 291,
      "ong": 292,
      "our": 293,
      "pla": 294,
      "direct": 295,
      "ces": 296,
      "ious": 297,
      "ble": 298,
      "ial": 299,
      "RRB": 300,
      "LRB": 301,
      "ep": 302,
      "less": 303,
      "An": 304,
      "tra": 305,
      "ish": 306,
      "ick": 307,
      "me": 308,
      "any": 309,
      "work": 310,
      "cl": 311,
      "ry": 312,
      "thr": 313,
      "into": 314,
      "Th": 315,
      "ves": 316,
      "wo": 317,
      "comed": 318,
      "gu": 319,
      "ple": 320,
      "ies": 321,
      "ary": 322,
      "ment": 323,
      "ff": 324,
      "off": 325,
      "cre": 326,
      "ot": 327,
      "ear": 328,
      "ie": 329,
      "mat": 330,
      "ins": 331,
      "too": 332,
      "mu": 333,
      "ph": 334,
      "just": 335,
      "over": 336,
      "dra": 337,
      "ict": 338,
      "ny": 339,
      "ire": 340,
      "good": 341,
      "ise": 342,
      "ite": 343,
      "does": 344,
      "even": 345,
      "ating": 346,
      "low": 347,
      "ical": 348,
      "mer": 349,
      "pr": 350,
      "comedy": 351,
      "fa": 352,
      "fl": 353,
      "hum": 354,
      "ass": 355,
      "can": 356,
      "will": 357,
      "Wh": 358,
      "time": 359,
      "wn": 360,
      "This": 361,
      "pa": 362,
      "old": 363,
      "ile": 364,
      "plo": 365,
      "perfor": 366,
      "elf": 367,
      "``": 368,
      "''": 369,
      "tain": 370,
      "feel": 371,
      "ark": 372,
      "ob": 373,
      "ingly": 374,
      "tal": 375,
      "funny": 376,
      "sur": 377,
      "reen": 378,
      "characters": 379,
      "atch": 380,
      "ort": 381,
      "rit": 382,
      "ated": 383,
      "her": 384,
      "other": 385,
      "ens": 386,
      "ative": 387,
      "ound": 388,
      "much": 389,
      "co": 390,
      "ide": 391,
      "performan": 392,
      "ser": 393,
      "ense": 394,
      "dis": 395,
      "ertain": 396,
      "bet": 397,
      "what": 398,
      "get": 399,
      "director": 400,
      "des": 401,
      "min": 402,
      "iz": 403,
      "ach": 404,
      "gen": 405,
      "ran": 406,
      "real": 407,
      "ling": 408,
      "ice": 409,
      "look": 410,
      "play": 411,
      "make": 412,
      "ittle": 413,
      "age": 414,
      "their": 415,
      "sub": 416,
      "well": 417,
      "comp": 418,
      "your": 419,
      "screen": 420,
      "ack": 421,
      "ew": 422,
      "ving": 423,
      "ren": 424,
      "ak": 425,
      "ip": 426,
      "ily": 427,
      "ore": 428,
      "fect": 429,
      "only": 430,
      "pect": 431,
      "inter": 432,
      "little": 433,
      "ness": 434,
      "ash": 435,
      "vis": 436,
      "ef": 437,
      "ult": 438,
      "ber": 439,
      "br": 440,
      "ud": 441,
      "bad": 442,
      "reat": 443,
      "del": 444,
      "every": 445,
      "ll": 446,
      "year": 447,
      "imp": 448,
      "life": 449,
      "vel": 450,
      "which": 451,
      "iv": 452,
      "Ch": 453,
      "jo": 454,
      "ions": 455,
      "ty": 456,
      "ance": 457,
      "fully": 458,
      "seem": 459,
      "been": 460,
      "may": 461,
      "never": 462,
      "pp": 463,
      "how": 464,
      "du": 465,
      "ever": 466,
      "would": 467,
      "they": 468,
      "through": 469,
      "bl": 470,
      "ents": 471,
      "mag": 472,
      "tri": 473,
      "makes": 474,
      "In": 475,
      "there": 476,
      "heart": 477,
      "love": 478,
      "gra": 479,
      "watch": 480,
      "ately": 481,
      "af": 482,
      "see": 483,
      "enough": 484,
      "ame": 485,
      "cess": 486,
      "part": 487,
      "sy": 488,
      "ster": 489,
      "under": 490,
      "ild": 491,
      "entertain": 492,
      "ably": 493,
      "action": 494,
      "self": 495,
      "ors": 496,
      "gr": 497,
      "ink": 498,
      "them": 499,
      "drama": 500,
      "fam": 501,
      "was": 502,
      "fre": 503,
      "ose": 504,
      "ting": 505,
      "ang": 506,
      "made": 507,
      "plot": 508,
      "cin": 509,
      "cent": 510,
      "come": 511,
      "now": 512,
      "movies": 513,
      "urn": 514,
      "sm": 515,
      "best": 516,
      "res": 517,
      "mot": 518,
      "je": 519,
      "ans": 520,
      "cast": 521,
      "ten": 522,
      "ual": 523,
      "ional": 524,
      "cum": 525,
      "could": 526,
      "aw": 527,
      "day": 528,
      "lack": 529,
      "down": 530,
      "pec": 531,
      "own": 532,
      "ain": 533,
      "long": 534,
      "eng": 535,
      "There": 536,
      "St": 537,
      "something": 538,
      "ject": 539,
      "ca": 540,
      "interest": 541,
      "audi": 542,
      "ho": 543,
      "my": 544,
      "inal": 545,
      "att": 546,
      "oc": 547,
      "vers": 548,
      "ign": 549,
      "really": 550,
      "lau": 551,
      "elling": 552,
      "If": 553,
      "hard": 554,
      "ved": 555,
      "should": 556,
      "point": 557,
      "press": 558,
      "minut": 559,
      "joy": 560,
      "igh": 561,
      "fir": 562,
      "comes": 563,
      "character": 564,
      "humor": 565,
      "performances": 566,
      "ian": 567,
      "vent": 568,
      "war": 569,
      "ull": 570,
      "light": 571,
      "row": 572,
      "filmmak": 573,
      "new": 574,
      "aut": 575,
      "bit": 576,
      "great": 577,
      "writ": 578,
      "films": 579,
      "when": 580,
      "right": 581,
      "many": 582,
      "thrill": 583,
      "bel": 584,
      "cle": 585,
      "scri": 586,
      "ations": 587,
      "ism": 588,
      "better": 589,
      "wer": 590,
      "cho": 591,
      "ature": 592,
      "view": 593,
      "olly": 594,
      "scen": 595,
      "ople": 596,
      "laugh": 597,
      "ible": 598,
      "imag": 599,
      "ning": 600,
      "ually": 601,
      "ven": 602,
      "cau": 603,
      "sty": 604,
      "ically": 605,
      "without": 606,
      "people": 607,
      "mis": 608,
      "pie": 609,
      "pict": 610,
      "sense": 611,
      "turn": 612,
      "times": 613,
      "pleas": 614,
      "first": 615,
      "big": 616,
      "back": 617,
      "kind": 618,
      "por": 619,
      "ste": 620,
      "set": 621,
      "docum": 622,
      "tak": 623,
      "wood": 624,
      "surpr": 625,
      "script": 626,
      "document": 627,
      "ath": 628,
      "ted": 629,
      "two": 630,
      "What": 631,
      "cap": 632,
      "gg": 633,
      "stand": 634,
      "cept": 635,
      "str": 636,
      "still": 637,
      "hist": 638,
      "pl": 639,
      "tru": 640,
      "ates": 641,
      "cause": 642,
      "Amer": 643,
      "col": 644,
      "emot": 645,
      "enjoy": 646,
      "also": 647,
      "ction": 648,
      "gue": 649,
      "Americ": 650,
      "ced": 651,
      "show": 652,
      "peri": 653,
      "led": 654,
      "ner": 655,
      "ings": 656,
      "both": 657,
      "As": 658,
      "cut": 659,
      "here": 660,
      "mom": 661,
      "ying": 662,
      "read": 663,
      "ought": 664,
      "arly": 665,
      "ext": 666,
      "spir": 667,
      "med": 668,
      "rem": 669,
      "nothing": 670,
      "worth": 671,
      "car": 672,
      "sit": 673,
      "power": 674,
      "pret": 675,
      "human": 676,
      "cy": 677,
      "gent": 678,
      "les": 679,
      "mon": 680,
      "those": 681,
      "fort": 682,
      "audience": 683,
      "picture": 684,
      "might": 685,
      "arr": 686,
      "ky": 687,
      "ming": 688,
      "ys": 689,
      "ree": 690,
      "che": 691,
      "log": 692,
      "where": 693,
      "antic": 694,
      "ween": 695,
      "tale": 696,
      "gi": 697,
      "ond": 698,
      "But": 699,
      "cra": 700,
      "find": 701,
      "ks": 702,
      "often": 703,
      "such": 704,
      "cont": 705,
      "ollywood": 706,
      "know": 707,
      "sat": 708,
      "sequ": 709,
      "because": 710,
      "performance": 711,
      "One": 712,
      "ike": 713,
      "pers": 714,
      "while": 715,
      "Hollywood": 716,
      "av": 717,
      "cr": 718,
      "fin": 719,
      "being": 720,
      "beaut": 721,
      "comple": 722,
      "ences": 723,
      "entertaining": 724,
      "surpris": 725,
      "eas": 726,
      "far": 727,
      "hand": 728,
      "tit": 729,
      "ars": 730,
      "need": 731,
      "intel": 732,
      "minutes": 733,
      "documentary": 734,
      "gl": 735,
      "os": 736,
      "though": 737,
      "red": 738,
      "world": 739,
      "ages": 740,
      "seems": 741,
      "thriller": 742,
      "ey": 743,
      "rel": 744,
      "istic": 745,
      "between": 746,
      "bu": 747,
      "fore": 748,
      "high": 749,
      "think": 750,
      "form": 751,
      "exc": 752,
      "care": 753,
      "dit": 754,
      "kid": 755,
      "onder": 756,
      "orig": 757,
      "ross": 758,
      "ney": 759,
      "take": 760,
      "spec": 761,
      "try": 762,
      "ward": 763,
      "keep": 764,
      "acting": 765,
      "weet": 766,
      "piece": 767,
      "original": 768,
      "De": 769,
      "cult": 770,
      "fla": 771,
      "him": 772,
      "run": 773,
      "sing": 774,
      "want": 775,
      "cas": 776,
      "dict": 777,
      "hor": 778,
      "ue": 779,
      "wr": 780,
      "were": 781,
      "ination": 782,
      "ater": 783,
      "ord": 784,
      "lea": 785,
      "few": 786,
      "umb": 787,
      "appe": 788,
      "sent": 789,
      "ale": 790,
      "suc": 791,
      "poss": 792,
      "romantic": 793,
      "after": 794,
      "fresh": 795,
      "\\/": 796,
      "iet": 797,
      "sin": 798,
      "ics": 799,
      "lot": 800,
      "expect": 801,
      "again": 802,
      "effect": 803,
      "mess": 804,
      "another": 805,
      "ultim": 806,
      "produ": 807,
      "ends": 808,
      "making": 809,
      "feels": 810,
      "gener": 811,
      "family": 812,
      "interesting": 813,
      "Al": 814,
      "No": 815,
      "had": 816,
      "hour": 817,
      "oo": 818,
      "put": 819,
      "iness": 820,
      "almost": 821,
      "actors": 822,
      "matic": 823,
      "American": 824,
      "Be": 825,
      "fi": 826,
      "mem": 827,
      "mind": 828,
      "alo": 829,
      "irl": 830,
      "quite": 831,
      "beauti": 832,
      "ia": 833,
      "mus": 834,
      "ps": 835,
      "tw": 836,
      "wom": 837,
      "ream": 838,
      "ener": 839,
      "ason": 840,
      "seen": 841,
      "und": 842,
      "itself": 843,
      "sho": 844,
      "mater": 845,
      "For": 846,
      "hal": 847,
      "ane": 848,
      "ering": 849,
      "these": 850,
      "stru": 851,
      "rid": 852,
      "did": 853,
      "dialo": 854,
      "works": 855,
      "clich": 856,
      "deli": 857,
      "graph": 858,
      "intelli": 859,
      "Sp": 860,
      "line": 861,
      "mar": 862,
      "ng": 863,
      "pol": 864,
      "tr": 865,
      "anim": 866,
      "ouch": 867,
      "vide": 868,
      "experi": 869,
      "ously": 870,
      "things": 871,
      "ways": 872,
      "Mo": 873,
      "Se": 874,
      "Un": 875,
      "With": 876,
      "bre": 877,
      "cing": 878,
      "fas": 879,
      "pass": 880,
      "ress": 881,
      "ils": 882,
      "ility": 883,
      "before": 884,
      "rather": 885,
      "emat": 886,
      "flick": 887,
      "moments": 888,
      "material": 889,
      "dialogue": 890,
      "Like": 891,
      "You": 892,
      "ele": 893,
      "hy": 894,
      "ib": 895,
      "she": 896,
      "say": 897,
      "vid": 898,
      "young": 899,
      "cons": 900,
      "ures": 901,
      "class": 902,
      "subject": 903,
      "fascin": 904,
      "cer": 905,
      "clo": 906,
      "mi": 907,
      "comm": 908,
      "ired": 909,
      "years": 910,
      "person": 911,
      "All": 912,
      "give": 913,
      "io": 914,
      "ms": 915,
      "mor": 916,
      "par": 917,
      "touch": 918,
      "uff": 919,
      "vin": 920,
      "thought": 921,
      "illi": 922,
      "child": 923,
      "ime": 924,
      "going": 925,
      "inema": 926,
      "dist": 927,
      "fr": 928,
      "pite": 929,
      "wit": 930,
      "stra": 931,
      "icul": 932,
      "diff": 933,
      "ody": 934,
      "que": 935,
      "cinemat": 936,
      "scenes": 937,
      "portra": 938,
      "half": 939,
      "cam": 940,
      "gy": 941,
      "ove": 942,
      "sk": 943,
      "yet": 944,
      "ality": 945,
      "ionally": 946,
      "sex": 947,
      "deep": 948,
      "sum": 949,
      "using": 950,
      "face": 951,
      "compelling": 952,
      "visual": 953,
      "watching": 954,
      "bor": 955,
      "ft": 956,
      "iar": 957,
      "ently": 958,
      "gether": 959,
      "predict": 960,
      "While": 961,
      "writer": 962,
      "ultimately": 963,
      "cial": 964,
      "cinema": 965,
      "dark": 966,
      "hil": 967,
      "ially": 968,
      "wonder": 969,
      "era": 970,
      "als": 971,
      "least": 972,
      "ither": 973,
      "last": 974,
      "gets": 975,
      "ship": 976,
      "empt": 977,
      "style": 978,
      "dull": 979,
      "fic": 980,
      "sl": 981,
      "son": 982,
      "simp": 983,
      "win": 984,
      "inv": 985,
      "sure": 986,
      "aren": 987,
      "takes": 988,
      "spirit": 989,
      "fascinating": 990,
      "19": 991,
      "ds": 992,
      "ged": 993,
      "once": 994,
      "together": 995,
      "moving": 996,
      "perfect": 997,
      "full": 998,
      "app": 999,
      "teen": 1000,
      "direction": 1001,
      "famil": 1002,
      "special": 1003,
      "ier": 1004,
      "king": 1005,
      "ines": 1006,
      "allow": 1007,
      "main": 1008,
      "music": 1009,
      "air": 1010,
      "bra": 1011,
      "ler": 1012,
      "mel": 1013,
      "mid": 1014,
      "narr": 1015,
      "sed": 1016,
      "then": 1017,
      "eless": 1018,
      "rare": 1019,
      "iment": 1020,
      "feature": 1021,
      "ider": 1022,
      "clever": 1023,
      "gives": 1024,
      "Not": 1025,
      "cor": 1026,
      "coun": 1027,
      "fact": 1028,
      "ger": 1029,
      "psy": 1030,
      "sa": 1031,
      "spect": 1032,
      "zy": 1033,
      "super": 1034,
      "antly": 1035,
      "prob": 1036,
      "smart": 1037,
      "Bo": 1038,
      "Bro": 1039,
      "certain": 1040,
      "sweet": 1041,
      "head": 1042,
      "olut": 1043,
      "terri": 1044,
      "proble": 1045,
      "engag": 1046,
      "satis": 1047,
      "experience": 1048,
      "fall": 1049,
      "telling": 1050,
      "aring": 1051,
      "stud": 1052,
      "master": 1053,
      "vious": 1054,
      "comic": 1055,
      "place": 1056,
      "delight": 1057,
      "capt": 1058,
      "Jo": 1059,
      "Le": 1060,
      "Re": 1061,
      "ci": 1062,
      "ror": 1063,
      "sim": 1064,
      "usu": 1065,
      "start": 1066,
      "coming": 1067,
      "explo": 1068,
      "quir": 1069,
      "used": 1070,
      "anything": 1071,
      "serious": 1072,
      "screenplay": 1073,
      "Mr": 1074,
      "hon": 1075,
      "ton": 1076,
      "three": 1077,
      "aling": 1078,
      "short": 1079,
      "happ": 1080,
      "genre": 1081,
      "rench": 1082,
      "history": 1083,
      "video": 1084,
      "away": 1085,
      "ban": 1086,
      "na": 1087,
      "ned": 1088,
      "sad": 1089,
      "sens": 1090,
      "same": 1091,
      "itch": 1092,
      "illy": 1093,
      "let": 1094,
      "why": 1095,
      "ments": 1096,
      "ieve": 1097,
      "laughs": 1098,
      "emotional": 1099,
      "predictable": 1100,
      "hilar": 1101,
      "narrative": 1102,
      "cise": 1103,
      "fying": 1104,
      "mark": 1105,
      "use": 1106,
      "oul": 1107,
      "lead": 1108,
      "moder": 1109,
      "ula": 1110,
      "dev": 1111,
      "impress": 1112,
      "ceed": 1113,
      "lid": 1114,
      "ket": 1115,
      "pop": 1116,
      "strong": 1117,
      "kids": 1118,
      "possible": 1119,
      "Ro": 1120,
      "Sch": 1121,
      "dle": 1122,
      "done": 1123,
      "hel": 1124,
      "oper": 1125,
      "tran": 1126,
      "iting": 1127,
      "star": 1128,
      "dep": 1129,
      "uring": 1130,
      "ists": 1131,
      "charm": 1132,
      "sometimes": 1133,
      "effort": 1134,
      "stead": 1135,
      "since": 1136,
      "familiar": 1137,
      "Do": 1138,
      "fan": 1139,
      "hop": 1140,
      "iev": 1141,
      "pu": 1142,
      "val": 1143,
      "wa": 1144,
      "ref": 1145,
      "ret": 1146,
      "around": 1147,
      "unch": 1148,
      "susp": 1149,
      "actually": 1150,
      "itten": 1151,
      "And": 1152,
      "offers": 1153,
      "prof": 1154,
      "idea": 1155,
      "entertainment": 1156,
      "filmmakers": 1157,
      "complete": 1158,
      "cinematic": 1159,
      "modern": 1160,
      "At": 1161,
      "Con": 1162,
      "Even": 1163,
      "Sh": 1164,
      "bro": 1165,
      "fel": 1166,
      "lish": 1167,
      "prom": 1168,
      "ug": 1169,
      "zz": 1170,
      "top": 1171,
      "els": 1172,
      "odd": 1173,
      "odra": 1174,
      "ural": 1175,
      "whose": 1176,
      "pain": 1177,
      "talent": 1178,
      "serv": 1179,
      "series": 1180,
      "title": 1181,
      "sentiment": 1182,
      "study": 1183,
      "En": 1184,
      "New": 1185,
      "We": 1186,
      "bas": 1187,
      "call": 1188,
      "girl": 1189,
      "mise": 1190,
      "rich": 1191,
      "sound": 1192,
      "wise": 1193,
      "ery": 1194,
      "reason": 1195,
      "ese": 1196,
      "ories": 1197,
      "chan": 1198,
      "uni": 1199,
      "die": 1200,
      "exer": 1201,
      "solid": 1202,
      "goes": 1203,
      "whole": 1204,
      "insight": 1205,
      "fair": 1206,
      "looking": 1207,
      "differ": 1208,
      "engaging": 1209,
      "Da": 1210,
      "Man": 1211,
      "Rob": 1212,
      "den": 1213,
      "ding": 1214,
      "fans": 1215,
      "port": 1216,
      "entire": 1217,
      "pot": 1218,
      "worst": 1219,
      "manages": 1220,
      "likely": 1221,
      "ific": 1222,
      "book": 1223,
      "ized": 1224,
      "culture": 1225,
      "polit": 1226,
      "melodra": 1227,
      "exercise": 1228,
      "Des": 1229,
      "He": 1230,
      "cou": 1231,
      "cur": 1232,
      "dam": 1233,
      "fine": 1234,
      "lu": 1235,
      "non": 1236,
      "tic": 1237,
      "orge": 1238,
      "ited": 1239,
      "ities": 1240,
      "level": 1241,
      "suff": 1242,
      "ride": 1243,
      "ird": 1244,
      "convin": 1245,
      "premise": 1246,
      "ending": 1247,
      "mean": 1248,
      "matter": 1249,
      "flat": 1250,
      "izing": 1251,
      "vision": 1252,
      "small": 1253,
      "version": 1254,
      "cholog": 1255,
      "turns": 1256,
      "enjoyable": 1257,
      "women": 1258,
      "simply": 1259,
      "probably": 1260,
      "suspense": 1261,
      "fol": 1262,
      "men": 1263,
      "past": 1264,
      "ones": 1265,
      "ults": 1266,
      "abs": 1267,
      "advent": 1268,
      "nearly": 1269,
      "sci": 1270,
      "got": 1271,
      "prov": 1272,
      "ustr": 1273,
      "anyone": 1274,
      "hero": 1275,
      "plays": 1276,
      "subt": 1277,
      "iven": 1278,
      "filmmaking": 1279,
      "true": 1280,
      "remark": 1281,
      "surprisingly": 1282,
      "easy": 1283,
      "flaw": 1284,
      "success": 1285,
      "children": 1286,
      "portrait": 1287,
      "summer": 1288,
      "honest": 1289,
      "Ab": 1290,
      "Jack": 1291,
      "aff": 1292,
      "dy": 1293,
      "dest": 1294,
      "hold": 1295,
      "iel": 1296,
      "lar": 1297,
      "nor": 1298,
      "ris": 1299,
      "ron": 1300,
      "lect": 1301,
      "ability": 1302,
      "amusing": 1303,
      "exam": 1304,
      "ively": 1305,
      "path": 1306,
      "feeling": 1307,
      "range": 1308,
      "particul": 1309,
      "powerful": 1310,
      "formula": 1311,
      "horror": 1312,
      "00": 1313,
      "TV": 1314,
      "ade": 1315,
      "equ": 1316,
      "gs": 1317,
      "ked": 1318,
      "must": 1319,
      "slow": 1320,
      "soul": 1321,
      "thor": 1322,
      "ert": 1323,
      "rest": 1324,
      "always": 1325,
      "else": 1326,
      "becomes": 1327,
      "intri": 1328,
      "itting": 1329,
      "Though": 1330,
      "warm": 1331,
      "complex": 1332,
      "written": 1333,
      "energy": 1334,
      "struct": 1335,
      "mix": 1336,
      "Despite": 1337,
      "Ar": 1338,
      "Bar": 1339,
      "French": 1340,
      "cu": 1341,
      "cru": 1342,
      "da": 1343,
      "gence": 1344,
      "ood": 1345,
      "oid": 1346,
      "silly": 1347,
      "treat": 1348,
      "edly": 1349,
      "ational": 1350,
      "romance": 1351,
      "quest": 1352,
      "uses": 1353,
      "pres": 1354,
      "okes": 1355,
      "pretty": 1356,
      "effects": 1357,
      "beautiful": 1358,
      "Dis": 1359,
      "Mar": 1360,
      "blo": 1361,
      "ek": 1362,
      "fra": 1363,
      "fash": 1364,
      "hn": 1365,
      "ric": 1366,
      "side": 1367,
      "slight": 1368,
      "tone": 1369,
      "ze": 1370,
      "stuff": 1371,
      "beat": 1372,
      "viol": 1373,
      "deta": 1374,
      "contri": 1375,
      "appro": 1376,
      "charming": 1377,
      "dramatic": 1378,
      "deser": 1379,
      "affect": 1380,
      "trying": 1381,
      "clich茅": 1382,
      "intelligent": 1383,
      "break": 1384,
      "psycholog": 1385,
      "quirky": 1386,
      "fashion": 1387,
      "Di": 1388,
      "bal": 1389,
      "ball": 1390,
      "dro": 1391,
      "fant": 1392,
      "land": 1393,
      "pur": 1394,
      "sign": 1395,
      "tell": 1396,
      "wast": 1397,
      "rele": 1398,
      "reve": 1399,
      "ening": 1400,
      "ons": 1401,
      "beg": 1402,
      "dec": 1403,
      "dead": 1404,
      "quiet": 1405,
      "ident": 1406,
      "ended": 1407,
      "looks": 1408,
      "understand": 1409,
      "sett": 1410,
      "ready": 1411,
      "camera": 1412,
      "deeply": 1413,
      "By": 1414,
      "Every": 1415,
      "My": 1416,
      "To": 1417,
      "bly": 1418,
      "each": 1419,
      "ges": 1420,
      "gri": 1421,
      "lit": 1422,
      "reg": 1423,
      "recent": 1424,
      "espec": 1425,
      "stri": 1426,
      "ase": 1427,
      "debut": 1428,
      "defin": 1429,
      "above": 1430,
      "live": 1431,
      "except": 1432,
      "arely": 1433,
      "scar": 1434,
      "tech": 1435,
      "ize": 1436,
      "brilli": 1437,
      "minute": 1438,
      "writing": 1439,
      "believe": 1440,
      "chool": 1441,
      "beautifully": 1442,
      "invol": 1443,
      "certainly": 1444,
      "John": 1445,
      "felt": 1446,
      "especially": 1447,
      "Some": 1448,
      "Wor": 1449,
      "either": 1450,
      "gar": 1451,
      "lat": 1452,
      "ped": 1453,
      "pac": 1454,
      "sel": 1455,
      "uck": 1456,
      "thin": 1457,
      "theater": 1458,
      "itation": 1459,
      "itive": 1460,
      "arch": 1461,
      "entious": 1462,
      "actor": 1463,
      "conf": 1464,
      "ured": 1465,
      "appoint": 1466,
      "proves": 1467,
      "velop": 1468,
      "sym": 1469,
      "myster": 1470,
      "situ": 1471,
      "dition": 1472,
      "passion": 1473,
      "hilarious": 1474,
      "opera": 1475,
      "Com": 1476,
      "dream": 1477,
      "ecut": 1478,
      "fri": 1479,
      "grow": 1480,
      "male": 1481,
      "ring": 1482,
      "ses": 1483,
      "sort": 1484,
      "school": 1485,
      "uch": 1486,
      "uine": 1487,
      "thers": 1488,
      "ined": 1489,
      "insp": 1490,
      "ony": 1491,
      "arn": 1492,
      "key": 1493,
      "add": 1494,
      "tern": 1495,
      "ationship": 1496,
      "directed": 1497,
      "otic": 1498,
      "ension": 1499,
      "ideas": 1500,
      "everything": 1501,
      "relationship": 1502,
      "intelligence": 1503,
      "satisfying": 1504,
      "adventure": 1505,
      "Direct": 1506,
      "0s": 1507,
      "Car": 1508,
      "Mic": 1509,
      "Ste": 1510,
      "War": 1511,
      "bing": 1512,
      "fig": 1513,
      "jour": 1514,
      "kes": 1515,
      "nice": 1516,
      "nature": 1517,
      "yond": 1518,
      "orable": 1519,
      "along": 1520,
      "already": 1521,
      "stories": 1522,
      "utter": 1523,
      "beyond": 1524,
      "lives": 1525,
      "amoun": 1526,
      "lap": 1527,
      "shot": 1528,
      "execut": 1529,
      "posed": 1530,
      "cond": 1531,
      "tage": 1532,
      "taste": 1533,
      "hael": 1534,
      "Its": 1535,
      "intent": 1536,
      "That": 1537,
      "credi": 1538,
      "genuine": 1539,
      "berg": 1540,
      "everyone": 1541,
      "attempt": 1542,
      "pleasure": 1543,
      "truly": 1544,
      "craf": 1545,
      "leave": 1546,
      "straight": 1547,
      "problem": 1548,
      "usual": 1549,
      "completely": 1550,
      "selves": 1551,
      "10": 1552,
      "II": 1553,
      "Is": 1554,
      "Just": 1555,
      "Too": 1556,
      "aim": 1557,
      "dumb": 1558,
      "gon": 1559,
      "hu": 1560,
      "har": 1561,
      "lan": 1562,
      "lic": 1563,
      "list": 1564,
      "enty": 1565,
      "ung": 1566,
      "lies": 1567,
      "oles": 1568,
      "ambit": 1569,
      "post": 1570,
      "posit": 1571,
      "concept": 1572,
      "cks": 1573,
      "quick": 1574,
      "project": 1575,
      "aster": 1576,
      "event": 1577,
      "itty": 1578,
      "storytelling": 1579,
      "boy": 1580,
      "rush": 1581,
      "lessly": 1582,
      "guing": 1583,
      "creep": 1584,
      "iction": 1585,
      "obvious": 1586,
      "disappoint": 1587,
      "delic": 1588,
      "lacks": 1589,
      "audiences": 1590,
      "filmmaker": 1591,
      "colle": 1592,
      "shows": 1593,
      "pretentious": 1594,
      "sequel": 1595,
      "sequences": 1596,
      "expected": 1597,
      "touching": 1598,
      "boring": 1599,
      "fantas": 1600,
      "Ex": 1601,
      "Wal": 1602,
      "cal": 1603,
      "ely": 1604,
      "fight": 1605,
      "found": 1606,
      "nat": 1607,
      "nam": 1608,
      "paren": 1609,
      "sw": 1610,
      "wild": 1611,
      "instead": 1612,
      "reme": 1613,
      "refresh": 1614,
      "oud": 1615,
      "stick": 1616,
      "ential": 1617,
      "hether": 1618,
      "develop": 1619,
      "forget": 1620,
      "lif": 1621,
      "comb": 1622,
      "extra": 1623,
      "necess": 1624,
      "emp": 1625,
      "apt": 1626,
      "oughly": 1627,
      "traged": 1628,
      "bland": 1629,
      "grand": 1630,
      "believ": 1631,
      "histor": 1632,
      "case": 1633,
      "against": 1634,
      "production": 1635,
      "woman": 1636,
      "consider": 1637,
      "classic": 1638,
      "middle": 1639,
      "falls": 1640,
      "simple": 1641,
      "Michael": 1642,
      "Lo": 1643,
      "Sand": 1644,
      "ai": 1645,
      "bers": 1646,
      "dou": 1647,
      "dri": 1648,
      "fire": 1649,
      "final": 1650,
      "gn": 1651,
      "iest": 1652,
      "jokes": 1653,
      "pan": 1654,
      "pat": 1655,
      "spo": 1656,
      "ues": 1657,
      "van": 1658,
      "vil": 1659,
      "wal": 1660,
      "inst": 1661,
      "theat": 1662,
      "ital": 1663,
      "stun": 1664,
      "stop": 1665,
      "strange": 1666,
      "ley": 1667,
      "left": 1668,
      "mood": 1669,
      "unity": 1670,
      "acted": 1671,
      "poet": 1672,
      "soph": 1673,
      "social": 1674,
      "weird": 1675,
      "faith": 1676,
      "fails": 1677,
      "desper": 1678,
      "import": 1679,
      "pping": 1680,
      "tries": 1681,
      "hope": 1682,
      "viewers": 1683,
      "satire": 1684,
      "easily": 1685,
      "himself": 1686,
      "ordin": 1687,
      "Although": 1688,
      "hours": 1689,
      "deliver": 1690,
      "help": 1691,
      "sentimental": 1692,
      "melodrama": 1693,
      "subtle": 1694,
      "About": 1695,
      "particularly": 1696,
      "Co": 1697,
      "Love": 1698,
      "On": 1699,
      "Sol": 1700,
      "body": 1701,
      "cover": 1702,
      "cold": 1703,
      "crit": 1704,
      "four": 1705,
      "given": 1706,
      "hip": 1707,
      "ient": 1708,
      "mas": 1709,
      "py": 1710,
      "pay": 1711,
      "tar": 1712,
      "ende": 1713,
      "ising": 1714,
      "ands": 1715,
      "told": 1716,
      "ilo": 1717,
      "become": 1718,
      "vir": 1719,
      "rage": 1720,
      "dem": 1721,
      "death": 1722,
      "lock": 1723,
      "impossible": 1724,
      "sust": 1725,
      "expl": 1726,
      "neither": 1727,
      "poor": 1728,
      "soap": 1729,
      "emer": 1730,
      "ember": 1731,
      "artist": 1732,
      "ellent": 1733,
      "aged": 1734,
      "funn": 1735,
      "epis": 1736,
      "earn": 1737,
      "When": 1738,
      "occas": 1739,
      "scene": 1740,
      "moment": 1741,
      "message": 1742,
      "memorable": 1743,
      "graphy": 1744,
      "personal": 1745,
      "thoughtful": 1746,
      "spectac": 1747,
      "terrific": 1748,
      "different": 1749,
      "large": 1750,
      "90": 1751,
      "Af": 1752,
      "Mc": 1753,
      "Pro": 1754,
      "bud": 1755,
      "fut": 1756,
      "gag": 1757,
      "lab": 1758,
      "none": 1759,
      "night": 1760,
      "ode": 1761,
      "inf": 1762,
      "invent": 1763,
      "inspir": 1764,
      "leg": 1765,
      "chill": 1766,
      "heav": 1767,
      "lost": 1768,
      "room": 1769,
      "role": 1770,
      "road": 1771,
      "actress": 1772,
      "express": 1773,
      "oney": 1774,
      "convent": 1775,
      "urban": 1776,
      "uss": 1777,
      "upid": 1778,
      "inside": 1779,
      "reality": 1780,
      "subst": 1781,
      "bring": 1782,
      "ival": 1783,
      "seeing": 1784,
      "engross": 1785,
      "ocative": 1786,
      "clear": 1787,
      "images": 1788,
      "imagination": 1789,
      "standard": 1790,
      "crime": 1791,
      "surprising": 1792,
      "running": 1793,
      "succeed": 1794,
      "animation": 1795,
      "wonderful": 1796,
      "change": 1797,
      "follow": 1798,
      "remarkable": 1799,
      "mystery": 1800,
      "Director": 1801,
      "crafted": 1802,
      "Big": 1803,
      "Brit": 1804,
      "Fe": 1805,
      "God": 1806,
      "Girl": 1807,
      "How": 1808,
      "Mur": 1809,
      "Ni": 1810,
      "Po": 1811,
      "Sc": 1812,
      "ama": 1813,
      "ago": 1814,
      "black": 1815,
      "cop": 1816,
      "dim": 1817,
      "squ": 1818,
      "tired": 1819,
      "udi": 1820,
      "rema": 1821,
      "issu": 1822,
      "ork": 1823,
      "stupid": 1824,
      "ctive": 1825,
      "ention": 1826,
      "ular": 1827,
      "force": 1828,
      "comfort": 1829,
      "ries": 1830,
      "exist": 1831,
      "peak": 1832,
      "concer": 1833,
      "tains": 1834,
      "having": 1835,
      "weight": 1836,
      "spl": 1837,
      "iously": 1838,
      "itely": 1839,
      "flu": 1840,
      "flash": 1841,
      "pack": 1842,
      "atching": 1843,
      "rent": 1844,
      "ground": 1845,
      "themselves": 1846,
      "Steven": 1847,
      "imagin": 1848,
      "eyes": 1849,
      "horri": 1850,
      "leaves": 1851,
      "cliches": 1852,
      "close": 1853,
      "moral": 1854,
      "frustr": 1855,
      "depth": 1856,
      "fairly": 1857,
      "convincing": 1858,
      "thoroughly": 1859,
      "intriguing": 1860,
      "Disney": 1861,
      "approach": 1862,
      "psychological": 1863,
      "fashioned": 1864,
      "brilliant": 1865,
      "heavy": 1866,
      "engrossing": 1867,
      "remains": 1868,
      "Kid": 1869,
      "Oscar": 1870,
      "Time": 1871,
      "bar": 1872,
      "gone": 1873,
      "gorge": 1874,
      "ham": 1875,
      "job": 1876,
      "lin": 1877,
      "lim": 1878,
      "mble": 1879,
      "pul": 1880,
      "slo": 1881,
      "slap": 1882,
      "wel": 1883,
      "incl": 1884,
      "ances": 1885,
      "ered": 1886,
      "repe": 1887,
      "attra": 1888,
      "thetic": 1889,
      "ont": 1890,
      "ouse": 1891,
      "iche": 1892,
      "assu": 1893,
      "lets": 1894,
      "sever": 1895,
      "unf": 1896,
      "maj": 1897,
      "vivid": 1898,
      "depress": 1899,
      "adm": 1900,
      "ams": 1901,
      "usion": 1902,
      "present": 1903,
      "process": 1904,
      "events": 1905,
      "open": 1906,
      "comedies": 1907,
      "guil": 1908,
      "ears": 1909,
      "fail": 1910,
      "ensive": 1911,
      "despite": 1912,
      "rank": 1913,
      "viewer": 1914,
      "taking": 1915,
      "truth": 1916,
      "color": 1917,
      "emotionally": 1918,
      "extreme": 1919,
      "contem": 1920,
      "finally": 1921,
      "eye": 1922,
      "wrong": 1923,
      "twist": 1924,
      "delivers": 1925,
      "Spiel": 1926,
      "skill": 1927,
      "arent": 1928,
      "olutely": 1929,
      "presents": 1930,
      "violence": 1931,
      "inspired": 1932,
      "journey": 1933,
      "huge": 1934,
      "historical": 1935,
      "Spielberg": 1936,
      "Fre": 1937,
      "Gr": 1938,
      "Sha": 1939,
      "York": 1940,
      "ace": 1941,
      "game": 1942,
      "hit": 1943,
      "home": 1944,
      "ied": 1945,
      "rist": 1946,
      "sour": 1947,
      "tto": 1948,
      "var": 1949,
      "whether": 1950,
      "zing": 1951,
      "rew": 1952,
      "eni": 1953,
      "iss": 1954,
      "ised": 1955,
      "arp": 1956,
      "step": 1957,
      "ched": 1958,
      "second": 1959,
      "unk": 1960,
      "unsett": 1961,
      "ulative": 1962,
      "loss": 1963,
      "rol": 1964,
      "novel": 1965,
      "adults": 1966,
      "ames": 1967,
      "lay": 1968,
      "termin": 1969,
      "scary": 1970,
      "ishing": 1971,
      "ished": 1972,
      "offer": 1973,
      "otherwise": 1974,
      "ashing": 1975,
      "Christ": 1976,
      "hood": 1977,
      "pieces": 1978,
      "period": 1979,
      "medi": 1980,
      "cheap": 1981,
      "excellent": 1982,
      "appealing": 1983,
      "animated": 1984,
      "delightful": 1985,
      "impressive": 1986,
      "ugly": 1987,
      "talented": 1988,
      "Robert": 1989,
      "entirely": 1990,
      "political": 1991,
      "detail": 1992,
      "friend": 1993,
      "amount": 1994,
      "natural": 1995,
      "aptation": 1996,
      "tragedy": 1997,
      "virt": 1998,
      "After": 1999,
      "gags": 2000,
      "Bla": 2001,
      "Har": 2002,
      "Willi": 2003,
      "aver": 2004,
      "ake": 2005,
      "ben": 2006,
      "bed": 2007,
      "bur": 2008,
      "dry": 2009,
      "eth": 2010,
      "fo": 2011,
      "fare": 2012,
      "ife": 2013,
      "leng": 2014,
      "mere": 2015,
      "mur": 2016,
      "num": 2017,
      "next": 2018,
      "pure": 2019,
      "rout": 2020,
      "sn": 2021,
      "sle": 2022,
      "table": 2023,
      "vo": 2024,
      "wan": 2025,
      "wind": 2026,
      "reach": 2027,
      "recomm": 2028,
      "atory": 2029,
      "move": 2030,
      "seat": 2031,
      "rap": 2032,
      "ract": 2033,
      "absur": 2034,
      "forced": 2035,
      "sup": 2036,
      "amp": 2037,
      "sharp": 2038,
      "pet": 2039,
      "ump": 2040,
      "arts": 2041,
      "word": 2042,
      "words": 2043,
      "goof": 2044,
      "spark": 2045,
      "mostly": 2046,
      "plain": 2047,
      "working": 2048,
      "pair": 2049,
      "pped": 2050,
      "days": 2051,
      "attention": 2052,
      "imagine": 2053,
      "pleasant": 2054,
      "fortun": 2055,
      "single": 2056,
      "appeal": 2057,
      "possib": 2058,
      "shock": 2059,
      "consist": 2060,
      "captures": 2061,
      "flaws": 2062,
      "frame": 2063,
      "contrived": 2064,
      "latest": 2065,
      "creepy": 2066,
      "parents": 2067,
      "necessary": 2068,
      "doub": 2069,
      "important": 2070,
      "ordinary": 2071,
      "sustain": 2072,
      "earnest": 2073,
      "major": 2074,
      "unsettling": 2075,
      "length": 2076,
      "200": 2077,
      "Fri": 2078,
      "Has": 2079,
      "La": 2080,
      "More": 2081,
      "Pa": 2082,
      "Qu": 2083,
      "barely": 2084,
      "during": 2085,
      "fer": 2086,
      "fac": 2087,
      "gro": 2088,
      "ien": 2089,
      "kill": 2090,
      "loud": 2091,
      "pri": 2092,
      "round": 2093,
      "uous": 2094,
      "water": 2095,
      "inno": 2096,
      "remake": 2097,
      "revel": 2098,
      "reward": 2099,
      "entially": 2100,
      "ute": 2101,
      "vie": 2102,
      "rable": 2103,
      "decent": 2104,
      "demon": 2105,
      "imm": 2106,
      "impro": 2107,
      "cele": 2108,
      "lip": 2109,
      "ades": 2110,
      "rive": 2111,
      "female": 2112,
      "exact": 2113,
      "pose": 2114,
      "consc": 2115,
      "ement": 2116,
      "quently": 2117,
      "manip": 2118,
      "manner": 2119,
      "ides": 2120,
      "tele": 2121,
      "epic": 2122,
      "creative": 2123,
      "fav": 2124,
      "observ": 2125,
      "herent": 2126,
      "cool": 2127,
      "getting": 2128,
      "desc": 2129,
      "playing": 2130,
      "bles": 2131,
      "magic": 2132,
      "grace": 2133,
      "watchable": 2134,
      "themes": 2135,
      "awful": 2136,
      "miss": 2137,
      "surprise": 2138,
      "tedious": 2139,
      "worthy": 2140,
      "carto": 2141,
      "gentle": 2142,
      "Nothing": 2143,
      "shoot": 2144,
      "winning": 2145,
      "appy": 2146,
      "usually": 2147,
      "David": 2148,
      "examination": 2149,
      "liter": 2150,
      "relationships": 2151,
      "ambitious": 2152,
      "fantasy": 2153,
      "believable": 2154,
      "budget": 2155,
      "future": 2156,
      "conventional": 2157,
      "issues": 2158,
      "welcome": 2159,
      "Col": 2160,
      "Full": 2161,
      "Gu": 2162,
      "Green": 2163,
      "Good": 2164,
      "Jap": 2165,
      "Mon": 2166,
      "Pow": 2167,
      "So": 2168,
      "cla": 2169,
      "cord": 2170,
      "fast": 2171,
      "hind": 2172,
      "idi": 2173,
      "mal": 2174,
      "mild": 2175,
      "name": 2176,
      "numb": 2177,
      "pull": 2178,
      "sch": 2179,
      "sac": 2180,
      "test": 2181,
      "uc": 2182,
      "throw": 2183,
      "reli": 2184,
      "ison": 2185,
      "ister": 2186,
      "orts": 2187,
      "arc": 2188,
      "arily": 2189,
      "stay": 2190,
      "town": 2191,
      "ices": 2192,
      "icult": 2193,
      "asp": 2194,
      "mother": 2195,
      "search": 2196,
      "deft": 2197,
      "roll": 2198,
      "They": 2199,
      "adaptation": 2200,
      "rip": 2201,
      "near": 2202,
      "poign": 2203,
      "conce": 2204,
      "score": 2205,
      "taph": 2206,
      "soc": 2207,
      "quality": 2208,
      "usi": 2209,
      "uster": 2210,
      "someone": 2211,
      "deriv": 2212,
      "opport": 2213,
      "indul": 2214,
      "ets": 2215,
      "across": 2216,
      "overall": 2217,
      "pathetic": 2218,
      "core": 2219,
      "visually": 2220,
      "anger": 2221,
      "reson": 2222,
      "result": 2223,
      "awk": 2224,
      "attle": 2225,
      "stylish": 2226,
      "gged": 2227,
      "histic": 2228,
      "plenty": 2229,
      "remind": 2230,
      "cultural": 2231,
      "Beaut": 2232,
      "strugg": 2233,
      "Most": 2234,
      "elements": 2235,
      "Allen": 2236,
      "difficult": 2237,
      "rarely": 2238,
      "corn": 2239,
      "count": 2240,
      "masterpiece": 2241,
      "meaning": 2242,
      "curi": 2243,
      "blood": 2244,
      "techn": 2245,
      "target": 2246,
      "occasionally": 2247,
      "imaginative": 2248,
      "gorgeous": 2249,
      "Grant": 2250,
      "celebr": 2251,
      "Bl": 2252,
      "Dra": 2253,
      "Fat": 2254,
      "Ge": 2255,
      "Show": 2256,
      "\\*": 2257,
      "bus": 2258,
      "cul": 2259,
      "crow": 2260,
      "date": 2261,
      "flow": 2262,
      "ging": 2263,
      "gic": 2264,
      "gest": 2265,
      "hom": 2266,
      "ju": 2267,
      "lines": 2268,
      "nu": 2269,
      "pic": 2270,
      "pical": 2271,
      "punch": 2272,
      "phistic": 2273,
      "rum": 2274,
      "rous": 2275,
      "sess": 2276,
      "swe": 2277,
      "speak": 2278,
      "til": 2279,
      "wers": 2280,
      "thusi": 2281,
      "outh": 2282,
      "ouble": 2283,
      "stream": 2284,
      "toward": 2285,
      "edge": 2286,
      "chop": 2287,
      "eld": 2288,
      "sets": 2289,
      "vides": 2290,
      "ried": 2291,
      "ared": 2292,
      "umph": 2293,
      "conv": 2294,
      "concl": 2295,
      "construct": 2296,
      "sophistic": 2297,
      "hack": 2298,
      "quis": 2299,
      "worse": 2300,
      "apart": 2301,
      "ateur": 2302,
      "itted": 2303,
      "accomp": 2304,
      "ongs": 2305,
      "icks": 2306,
      "metaph": 2307,
      "Thing": 2308,
      "offensive": 2309,
      "creates": 2310,
      "credit": 2311,
      "match": 2312,
      "philo": 2313,
      "drag": 2314,
      "prim": 2315,
      "pace": 2316,
      "served": 2317,
      "ensemble": 2318,
      "complic": 2319,
      "Chan": 2320,
      "trip": 2321,
      "triumph": 2322,
      "centr": 2323,
      "casting": 2324,
      "lacking": 2325,
      "emotions": 2326,
      "America": 2327,
      "pictures": 2328,
      "contin": 2329,
      "knows": 2330,
      "career": 2331,
      "keeps": 2332,
      "undeni": 2333,
      "marvel": 2334,
      "breath": 2335,
      "brain": 2336,
      "superfic": 2337,
      "happen": 2338,
      "promise": 2339,
      "based": 2340,
      "called": 2341,
      "unique": 2342,
      "provocative": 2343,
      "Jackson": 2344,
      "pathy": 2345,
      "clich茅s": 2346,
      "definitely": 2347,
      "utterly": 2348,
      "execution": 2349,
      "contempor": 2350,
      "number": 2351,
      "doubt": 2352,
      "Japan": 2353,
      "philosoph": 2354,
      "20": 2355,
      "Ber": 2356,
      "Can": 2357,
      "Dan": 2358,
      "Hal": 2359,
      "Home": 2360,
      "Mor": 2361,
      "Never": 2362,
      "Park": 2363,
      "Ya": 2364,
      "ave": 2365,
      "bi": 2366,
      "bs": 2367,
      "band": 2368,
      "cour": 2369,
      "dom": 2370,
      "fu": 2371,
      "fest": 2372,
      "fiction": 2373,
      "gun": 2374,
      "gress": 2375,
      "ives": 2376,
      "mes": 2377,
      "nes": 2378,
      "ography": 2379,
      "sor": 2380,
      "tes": 2381,
      "ude": 2382,
      "vag": 2383,
      "yan": 2384,
      "zen": 2385,
      "ino": 2386,
      "incredi": 2387,
      "resp": 2388,
      "ensu": 2389,
      "enthusi": 2390,
      "atic": 2391,
      "atter": 2392,
      "ises": 2393,
      "escap": 2394,
      "ander": 2395,
      "stage": 2396,
      "chy": 2397,
      "ching": 2398,
      "unexpected": 2399,
      "determin": 2400,
      "ims": 2401,
      "fill": 2402,
      "lie": 2403,
      "liked": 2404,
      "rock": 2405,
      "amateur": 2406,
      "bute": 2407,
      "dog": 2408,
      "pert": 2409,
      "ury": 2410,
      "previous": 2411,
      "timate": 2412,
      "charis": 2413,
      "somewhat": 2414,
      "oking": 2415,
      "paint": 2416,
      "olds": 2417,
      "cost": 2418,
      "design": 2419,
      "Char": 2420,
      "throughout": 2421,
      "bled": 2422,
      "hearted": 2423,
      "frequently": 2424,
      "resist": 2425,
      "respect": 2426,
      "writers": 2427,
      "viewing": 2428,
      "remember": 2429,
      "monster": 2430,
      "logy": 2431,
      "needs": 2432,
      "thinking": 2433,
      "wants": 2434,
      "iety": 2435,
      "puts": 2436,
      "memory": 2437,
      "Secre": 2438,
      "front": 2439,
      "sexual": 2440,
      "perfectly": 2441,
      "counter": 2442,
      "sensitive": 2443,
      "trans": 2444,
      "couple": 2445,
      "absor": 2446,
      "successful": 2447,
      "warmth": 2448,
      "question": 2449,
      "waste": 2450,
      "involving": 2451,
      "pacing": 2452,
      "situations": 2453,
      "Niro": 2454,
      "several": 2455,
      "Williams": 2456,
      "recommend": 2457,
      "supposed": 2458,
      "fortunately": 2459,
      "2002": 2460,
      "exactly": 2461,
      "cartoon": 2462,
      "crowd": 2463,
      "superficial": 2464,
      "contemporary": 2465,
      "Adam": 2466,
      "Ben": 2467,
      "Crush": 2468,
      "Gra": 2469,
      "Ms": 2470,
      "Much": 2471,
      "Nich": 2472,
      "Of": 2473,
      "Pe": 2474,
      "Pol": 2475,
      "Rom": 2476,
      "Sw": 2477,
      "Sweet": 2478,
      "Two": 2479,
      "Wed": 2480,
      "Wil": 2481,
      "bag": 2482,
      "cere": 2483,
      "dan": 2484,
      "fle": 2485,
      "flo": 2486,
      "gel": 2487,
      "gang": 2488,
      "house": 2489,
      "ken": 2490,
      "kno": 2491,
      "listic": 2492,
      "mill": 2493,
      "money": 2494,
      "nic": 2495,
      "rical": 2496,
      "rhy": 2497,
      "sal": 2498,
      "som": 2499,
      "sick": 2500,
      "saw": 2501,
      "sav": 2502,
      "tire": 2503,
      "wish": 2504,
      "witty": 2505,
      "ina": 2506,
      "inning": 2507,
      "indie": 2508,
      "ank": 2509,
      "ero": 2510,
      "ator": 2511,
      "atmo": 2512,
      "sto": 2513,
      "stars": 2514,
      "enter": 2515,
      "hem": 2516,
      "vey": 2517,
      "uneven": 2518,
      "unfunny": 2519,
      "mach": 2520,
      "mage": 2521,
      "deal": 2522,
      "decess": 2523,
      "lots": 2524,
      "verse": 2525,
      "filled": 2526,
      "living": 2527,
      "commer": 2528,
      "ament": 2529,
      "among": 2530,
      "shallow": 2531,
      "fear": 2532,
      "doing": 2533,
      "oder": 2534,
      "soon": 2535,
      "emb": 2536,
      "ants": 2537,
      "prec": 2538,
      "weak": 2539,
      "thanks": 2540,
      "intense": 2541,
      "Any": 2542,
      "guess": 2543,
      "create": 2544,
      "created": 2545,
      "insky": 2546,
      "phy": 2547,
      "atingly": 2548,
      "orting": 2549,
      "izes": 2550,
      "realism": 2551,
      "brings": 2552,
      "ivity": 2553,
      "tribute": 2554,
      "free": 2555,
      "surprises": 2556,
      "build": 2557,
      "product": 2558,
      "generic": 2559,
      "field": 2560,
      "shots": 2561,
      "Spy": 2562,
      "Moore": 2563,
      "Movie": 2564,
      "flicks": 2565,
      "eleg": 2566,
      "iocre": 2567,
      "sexy": 2568,
      "apparent": 2569,
      "olution": 2570,
      "problems": 2571,
      "leads": 2572,
      "Rock": 2573,
      "girls": 2574,
      "sounds": 2575,
      "insightful": 2576,
      "absolutely": 2577,
      "slightly": 2578,
      "deserves": 2579,
      "purpose": 2580,
      "begins": 2581,
      "langu": 2582,
      "college": 2583,
      "forgettable": 2584,
      "Sandler": 2585,
      "faithful": 2586,
      "explor": 2587,
      "episode": 2588,
      "inventive": 2589,
      "Murphy": 2590,
      "conscious": 2591,
      "manipulative": 2592,
      "awkward": 2593,
      "George": 2594,
      "sophisticated": 2595,
      "Nichol": 2596,
      "rhyth": 2597,
      "atmosp": 2598,
      "Ca": 2599,
      "Day": 2600,
      "Ed": 2601,
      "Her": 2602,
      "Im": 2603,
      "Lu": 2604,
      "Ma": 2605,
      "Me": 2606,
      "Or": 2607,
      "Ser": 2608,
      "Tra": 2609,
      "Wo": 2610,
      "Watching": 2611,
      "bul": 2612,
      "bling": 2613,
      "bright": 2614,
      "battle": 2615,
      "cross": 2616,
      "dre": 2617,
      "dish": 2618,
      "five": 2619,
      "gross": 2620,
      "ki": 2621,
      "oto": 2622,
      "others": 2623,
      "pes": 2624,
      "pick": 2625,
      "sket": 2626,
      "sitting": 2627,
      "text": 2628,
      "vul": 2629,
      "yal": 2630,
      "zed": 2631,
      "thent": 2632,
      "thro": 2633,
      "inc": 2634,
      "inct": 2635,
      "anced": 2636,
      "reas": 2637,
      "reco": 2638,
      "ingu": 2639,
      "orm": 2640,
      "andon": 2641,
      "andering": 2642,
      "altern": 2643,
      "stere": 2644,
      "stren": 2645,
      "studi": 2646,
      "aspect": 2647,
      "omb": 2648,
      "chem": 2649,
      "sem": 2650,
      "season": 2651,
      "behind": 2652,
      "raw": 2653,
      "suck": 2654,
      "supp": 2655,
      "shame": 2656,
      "terms": 2657,
      "dow": 2658,
      "conne": 2659,
      "ousy": 2660,
      "sca": 2661,
      "predecess": 2662,
      "provides": 2663,
      "indust": 2664,
      "upon": 2665,
      "inept": 2666,
      "bodi": 2667,
      "authent": 2668,
      "places": 2669,
      "clum": 2670,
      "guys": 2671,
      "justice": 2672,
      "overcome": 2673,
      "obsess": 2674,
      "surface": 2675,
      "minor": 2676,
      "achieve": 2677,
      "achiev": 2678,
      "comprom": 2679,
      "company": 2680,
      "render": 2681,
      "aks": 2682,
      "impact": 2683,
      "joke": 2684,
      "lovely": 2685,
      "motion": 2686,
      "interested": 2687,
      "hardly": 2688,
      "pointless": 2689,
      "belly": 2690,
      "clearly": 2691,
      "turned": 2692,
      "setting": 2693,
      "taken": 2694,
      "ondz": 2695,
      "finds": 2696,
      "avoid": 2697,
      "cris": 2698,
      "beauty": 2699,
      "intellect": 2700,
      "relent": 2701,
      "highly": 2702,
      "exciting": 2703,
      "runs": 2704,
      "twists": 2705,
      "spiritual": 2706,
      "allows": 2707,
      "starts": 2708,
      "seriously": 2709,
      "devast": 2710,
      "zzling": 2711,
      "painful": 2712,
      "painfully": 2713,
      "flawed": 2714,
      "equally": 2715,
      "treatment": 2716,
      "affection": 2717,
      "reveals": 2718,
      "regard": 2719,
      "World": 2720,
      "paced": 2721,
      "situation": 2722,
      "figure": 2723,
      "quickly": 2724,
      "considerable": 2725,
      "poetry": 2726,
      "Solondz": 2727,
      "endearing": 2728,
      "poorly": 2729,
      "funnier": 2730,
      "spectacle": 2731,
      "succeeds": 2732,
      "British": 2733,
      "slopp": 2734,
      "repetit": 2735,
      "depressing": 2736,
      "colorful": 2737,
      "merely": 2738,
      "absurd": 2739,
      "demonstr": 2740,
      "derivative": 2741,
      "accomplish": 2742,
      "amateurish": 2743,
      "commercial": 2744,
      "Ad": 2745,
      "Bul": 2746,
      "Fil": 2747,
      "From": 2748,
      "High": 2749,
      "King": 2750,
      "May": 2751,
      "Mart": 2752,
      "Per": 2753,
      "Run": 2754,
      "Russ": 2755,
      "Sat": 2756,
      "Smo": 2757,
      "Soder": 2758,
      "Tom": 2759,
      "Well": 2760,
      "Wild": 2761,
      "ah": 2762,
      "az": 2763,
      "biz": 2764,
      "bio": 2765,
      "dits": 2766,
      "dru": 2767,
      "egr": 2768,
      "fal": 2769,
      "fly": 2770,
      "fran": 2771,
      "gut": 2772,
      "gay": 2773,
      "gif": 2774,
      "gment": 2775,
      "ira": 2776,
      "kin": 2777,
      "kable": 2778,
      "mers": 2779,
      "nal": 2780,
      "ov": 2781,
      "pun": 2782,
      "pile": 2783,
      "sink": 2784,
      "tur": 2785,
      "tension": 2786,
      "intimate": 2787,
      "anno": 2788,
      "anks": 2789,
      "record": 2790,
      "eness": 2791,
      "ats": 2792,
      "theless": 2793,
      "onic": 2794,
      "esy": 2795,
      "orn": 2796,
      "orious": 2797,
      "aly": 2798,
      "alan": 2799,
      "arter": 2800,
      "stal": 2801,
      "omen": 2802,
      "chall": 2803,
      "chise": 2804,
      "chang": 2805,
      "modest": 2806,
      "until": 2807,
      "load": 2808,
      "liber": 2809,
      "rot": 2810,
      "sugg": 2811,
      "irty": 2812,
      "share": 2813,
      "shap": 2814,
      "exp": 2815,
      "pos": 2816,
      "tast": 2817,
      "tack": 2818,
      "tagon": 2819,
      "haun": 2820,
      "quent": 2821,
      "goers": 2822,
      "preci": 2823,
      "appreci": 2824,
      "atever": 2825,
      "istry": 2826,
      "agger": 2827,
      "intro": 2828,
      "integr": 2829,
      "ups": 2830,
      "tear": 2831,
      "acy": 2832,
      "accept": 2833,
      "track": 2834,
      "tragic": 2835,
      "means": 2836,
      "Those": 2837,
      "mention": 2838,
      "oty": 2839,
      "mud": 2840,
      "photo": 2841,
      "survi": 2842,
      "riter": 2843,
      "coherent": 2844,
      "realistic": 2845,
      "compass": 2846,
      "bergh": 2847,
      "brut": 2848,
      "typical": 2849,
      "however": 2850,
      "Instead": 2851,
      "heartfelt": 2852,
      "party": 2853,
      "urns": 2854,
      "attemp": 2855,
      "versal": 2856,
      "points": 2857,
      "missed": 2858,
      "please": 2859,
      "capable": 2860,
      "cute": 2861,
      "reading": 2862,
      "meditation": 2863,
      "mediocre": 2864,
      "worthwhile": 2865,
      "humanity": 2866,
      "arring": 2867,
      "handed": 2868,
      "needed": 2869,
      "glimp": 2870,
      "eyed": 2871,
      "excit": 2872,
      "effective": 2873,
      "graphic": 2874,
      "community": 2875,
      "iculous": 2876,
      "cinematography": 2877,
      "country": 2878,
      "Both": 2879,
      "Brown": 2880,
      "devoid": 2881,
      "depend": 2882,
      "Does": 2883,
      "push": 2884,
      "publ": 2885,
      "refer": 2886,
      "suffers": 2887,
      "provoking": 2888,
      "remarkably": 2889,
      "holds": 2890,
      "formulaic": 2891,
      "involved": 2892,
      "eventually": 2893,
      "delicate": 2894,
      "refreshing": 2895,
      "inspiring": 2896,
      "Kids": 2897,
      "murder": 2898,
      "goofy": 2899,
      "descri": 2900,
      "opportunity": 2901,
      "conclusion": 2902,
      "metaphor": 2903,
      "tiresome": 2904,
      "stereoty": 2905,
      "chemistry": 2906,
      "industry": 2907,
      "Bullock": 2908,
      "Soderbergh": 2909,
      "franchise": 2910,
      "suggest": 2911,
      "attempts": 2912,
      "70s": 2913,
      "AX": 2914,
      "Br": 2915,
      "Bad": 2916,
      "Bond": 2917,
      "Cra": 2918,
      "City": 2919,
      "Del": 2920,
      "Dam": 2921,
      "Dick": 2922,
      "Ev": 2923,
      "Ho": 2924,
      "Hu": 2925,
      "Hol": 2926,
      "Hoff": 2927,
      "IM": 2928,
      "Jul": 2929,
      "Kis": 2930,
      "Law": 2931,
      "Pla": 2932,
      "Ryan": 2933,
      "Sm": 2934,
      "Sor": 2935,
      "Sar": 2936,
      "She": 2937,
      "Such": 2938,
      "Ul": 2939,
      "Writer": 2940,
      "XX": 2941,
      "aven": 2942,
      "bes": 2943,
      "bow": 2944,
      "bust": 2945,
      "blow": 2946,
      "bold": 2947,
      "bound": 2948,
      "brid": 2949,
      "cand": 2950,
      "cli": 2951,
      "came": 2952,
      "dled": 2953,
      "eper": 2954,
      "foo": 2955,
      "hell": 2956,
      "hot": 2957,
      "ix": 2958,
      "ifully": 2959,
      "lad": 2960,
      "late": 2961,
      "lame": 2962,
      "pal": 2963,
      "pract": 2964,
      "rate": 2965,
      "sappy": 2966,
      "ters": 2967,
      "tough": 2968,
      "vic": 2969,
      "wing": 2970,
      "xic": 2971,
      "yarn": 2972,
      "iny": 2973,
      "itative": 2974,
      "oup": 2975,
      "alone": 2976,
      "alive": 2977,
      "alian": 2978,
      "alien": 2979,
      "arant": 2980,
      "aries": 2981,
      "stom": 2982,
      "stir": 2983,
      "today": 2984,
      "eds": 2985,
      "icle": 2986,
      "ask": 2987,
      "asm": 2988,
      "uter": 2989,
      "bear": 2990,
      "beha": 2991,
      "depict": 2992,
      "decept": 2993,
      "imal": 2994,
      "immedi": 2995,
      "likable": 2996,
      "suspect": 2997,
      "erson": 2998,
      "contra": 2999,
      "confl": 3000,
      "alling": 3001,
      "embra": 3002,
      "haps": 3003,
      "preh": 3004,
      "provide": 3005,
      "protagon": 3006,
      "week": 3007,
      "space": 3008,
      "sports": 3009,
      "somehow": 3010,
      "evil": 3011,
      "intended": 3012,
      "makers": 3013,
      "ify": 3014,
      "storyline": 3015,
      "bore": 3016,
      "botto": 3017,
      "acc": 3018,
      "acious": 3019,
      "access": 3020,
      "ours": 3021,
      "guise": 3022,
      "matically": 3023,
      "insult": 3024,
      "ires": 3025,
      "willing": 3026,
      "paper": 3027,
      "talk": 3028,
      "surround": 3029,
      "computer": 3030,
      "yourself": 3031,
      "rence": 3032,
      "badly": 3033,
      "Chris": 3034,
      "heartbreak": 3035,
      "grade": 3036,
      "angst": 3037,
      "Story": 3038,
      "ocused": 3039,
      "warming": 3040,
      "greatest": 3041,
      "thrills": 3042,
      "missing": 3043,
      "ledge": 3044,
      "reek": 3045,
      "logical": 3046,
      "content": 3047,
      "sequence": 3048,
      "sincere": 3049,
      "ultimate": 3050,
      "produced": 3051,
      "general": 3052,
      "minded": 3053,
      "mindless": 3054,
      "ridiculous": 3055,
      "trick": 3056,
      "trash": 3057,
      "sheer": 3058,
      "camp": 3059,
      "skin": 3060,
      "empty": 3061,
      "mainstream": 3062,
      "said": 3063,
      "Broom": 3064,
      "terrible": 3065,
      "captiv": 3066,
      "Lee": 3067,
      "marks": 3068,
      "popcorn": 3069,
      "transc": 3070,
      "value": 3071,
      "profess": 3072,
      "service": 3073,
      "politics": 3074,
      "melodramatic": 3075,
      "courage": 3076,
      "science": 3077,
      "affair": 3078,
      "intrigue": 3079,
      "questions": 3080,
      "wasted": 3081,
      "release": 3082,
      "decades": 3083,
      "quietly": 3084,
      "identity": 3085,
      "grief": 3086,
      "gripping": 3087,
      "dreams": 3088,
      "growing": 3089,
      "natured": 3090,
      "genuinely": 3091,
      "position": 3092,
      "spook": 3093,
      "villa": 3094,
      "emerges": 3095,
      "chilling": 3096,
      "Feels": 3097,
      "dimens": 3098,
      "slapstick": 3099,
      "guilty": 3100,
      "friendship": 3101,
      "virtually": 3102,
      "Blade": 3103,
      "routine": 3104,
      "possibly": 3105,
      "riveting": 3106,
      "favor": 3107,
      "indulgent": 3108,
      "Dragon": 3109,
      "business": 3110,
      "central": 3111,
      "course": 3112,
      "incredibly": 3113,
      "respons": 3114,
      "absorbing": 3115,
      "Peter": 3116,
      "authentic": 3117,
      "challeng": 3118,
      "excitement": 3119,
      "Hoffman": 3120,
      "IMAX": 3121,
      "Kissing": 3122,
      "Lawrence": 3123,
      "bottom": 3124,
      "Bu": 3125,
      "Bre": 3126,
      "Bel": 3127,
      "Bur": 3128,
      "DV": 3129,
      "El": 3130,
      "Far": 3131,
      "Fam": 3132,
      "Frank": 3133,
      "Go": 3134,
      "Gold": 3135,
      "Gos": 3136,
      "Kev": 3137,
      "Lan": 3138,
      "Mat": 3139,
      "Mad": 3140,
      "Ne": 3141,
      "Night": 3142,
      "Off": 3143,
      "Ren": 3144,
      "Rem": 3145,
      "Ter": 3146,
      "apo": 3147,
      "cir": 3148,
      "card": 3149,
      "catch": 3150,
      "eur": 3151,
      "fit": 3152,
      "fright": 3153,
      "gth": 3154,
      "gid": 3155,
      "gory": 3156,
      "gain": 3157,
      "hate": 3158,
      "holes": 3159,
      "ique": 3160,
      "jum": 3161,
      "kins": 3162,
      "mil": 3163,
      "ners": 3164,
      "nation": 3165,
      "national": 3166,
      "ponder": 3167,
      "slip": 3168,
      "sides": 3169,
      "sensu": 3170,
      "udes": 3171,
      "vy": 3172,
      "inde": 3173,
      "erk": 3174,
      "requ": 3175,
      "recy": 3176,
      "remain": 3177,
      "ency": 3178,
      "endid": 3179,
      "ingen": 3180,
      "itable": 3181,
      "aris": 3182,
      "arity": 3183,
      "editing": 3184,
      "ican": 3185,
      "iler": 3186,
      "iling": 3187,
      "ilities": 3188,
      "ased": 3189,
      "leby": 3190,
      "ches": 3191,
      "chance": 3192,
      "elo": 3193,
      "ution": 3194,
      "mad": 3195,
      "vig": 3196,
      "ulation": 3197,
      "demo": 3198,
      "rote": 3199,
      "root": 3200,
      "compet": 3201,
      "compreh": 3202,
      "nox": 3203,
      "adult": 3204,
      "admi": 3205,
      "addition": 3206,
      "adoles": 3207,
      "outrage": 3208,
      "essentially": 3209,
      "irrit": 3210,
      "dig": 3211,
      "sham": 3212,
      "excess": 3213,
      "neg": 3214,
      "scream": 3215,
      "iller": 3216,
      "urther": 3217,
      "ided": 3218,
      "proceed": 3219,
      "notice": 3220,
      "timately": 3221,
      "aston": 3222,
      "agal": 3223,
      "ett": 3224,
      "funct": 3225,
      "ption": 3226,
      "tradit": 3227,
      "icking": 3228,
      "meas": 3229,
      "cliche": 3230,
      "intoxic": 3231,
      "guy": 3232,
      "office": 3233,
      "creating": 3234,
      "credits": 3235,
      "mature": 3236,
      "mug": 3237,
      "performers": 3238,
      "object": 3239,
      "atively": 3240,
      "disaster": 3241,
      "getic": 3242,
      "directorial": 3243,
      "played": 3244,
      "akes": 3245,
      "aked": 3246,
      "viscer": 3247,
      "udlin": 3248,
      "Indi": 3249,
      "gradu": 3250,
      "smile": 3251,
      "results": 3252,
      "motiv": 3253,
      "anski": 3254,
      "tender": 3255,
      "Star": 3256,
      "arrass": 3257,
      "check": 3258,
      "perspect": 3259,
      "finish": 3260,
      "osity": 3261,
      "excuse": 3262,
      "neyed": 3263,
      "wrought": 3264,
      "appears": 3265,
      "generally": 3266,
      "members": 3267,
      "twice": 3268,
      "graphed": 3269,
      "Seagal": 3270,
      "wonderfully": 3271,
      "simil": 3272,
      "happens": 3273,
      "hilarating": 3274,
      "profound": 3275,
      "broad": 3276,
      "oddly": 3277,
      "Engl": 3278,
      "soundtrack": 3279,
      "universal": 3280,
      "difference": 3281,
      "current": 3282,
      "gotten": 3283,
      "iveness": 3284,
      "particular": 3285,
      "mixed": 3286,
      "deserve": 3287,
      "balance": 3288,
      "tells": 3289,
      "striking": 3290,
      "nicely": 3291,
      "collection": 3292,
      "wildly": 3293,
      "extraordinary": 3294,
      "emphas": 3295,
      "strangely": 3296,
      "largely": 3297,
      "comfortable": 3298,
      "frustrating": 3299,
      "includ": 3300,
      "assured": 3301,
      "failure": 3302,
      "extremely": 3303,
      "Shakes": 3304,
      "average": 3305,
      "voice": 3306,
      "wanna": 3307,
      "television": 3308,
      "mildly": 3309,
      "poignant": 3310,
      "Blue": 3311,
      "conviction": 3312,
      "constructed": 3313,
      "hackneyed": 3314,
      "complicated": 3315,
      "Japanese": 3316,
      "Parker": 3317,
      "mesmer": 3318,
      "Polanski": 3319,
      "Wedding": 3320,
      "embarrass": 3321,
      "exploration": 3322,
      "atmosphere": 3323,
      "Woody": 3324,
      "strength": 3325,
      "studio": 3326,
      "sloppy": 3327,
      "Film": 3328,
      "Martin": 3329,
      "annoying": 3330,
      "haunting": 3331,
      "footage": 3332,
      "behavi": 3333,
      "Kevin": 3334,
      "Ano": 3335,
      "Bra": 3336,
      "Bears": 3337,
      "Cu": 3338,
      "Du": 3339,
      "Earn": 3340,
      "Fa": 3341,
      "Fran": 3342,
      "Ir": 3343,
      "Je": 3344,
      "Jason": 3345,
      "James": 3346,
      "Little": 3347,
      "Nick": 3348,
      "Out": 3349,
      "Pal": 3350,
      "Pian": 3351,
      "San": 3352,
      "Son": 3353,
      "Sal": 3354,
      "Sto": 3355,
      "Sex": 3356,
      "Shy": 3357,
      "Tu": 3358,
      "Wes": 3359,
      "Will": 3360,
      "Water": 3361,
      "Washing": 3362,
      "bol": 3363,
      "bitt": 3364,
      "bility": 3365,
      "cat": 3366,
      "city": 3367,
      "cence": 3368,
      "cies": 3369,
      "dread": 3370,
      "eath": 3371,
      "fing": 3372,
      "fro": 3373,
      "fish": 3374,
      "food": 3375,
      "further": 3376,
      "hits": 3377,
      "hmer": 3378,
      "hide": 3379,
      "hicle": 3380,
      "ience": 3381,
      "kn": 3382,
      "lum": 3383,
      "lousy": 3384,
      "moun": 3385,
      "nel": 3386,
      "nast": 3387,
      "ots": 3388,
      "pen": 3389,
      "pit": 3390,
      "pitch": 3391,
      "san": 3392,
      "sight": 3393,
      "ties": 3394,
      "vate": 3395,
      "wry": 3396,
      "wond": 3397,
      "xed": 3398,
      "yes": 3399,
      "inner": 3400,
      "ancy": 3401,
      "err": 3402,
      "erotic": 3403,
      "redu": 3404,
      "thes": 3405,
      "theme": 3406,
      "esca": 3407,
      "itude": 3408,
      "anding": 3409,
      "arre": 3410,
      "sters": 3411,
      "stale": 3412,
      "stret": 3413,
      "icrous": 3414,
      "cha": 3415,
      "chant": 3416,
      "vehicle": 3417,
      "vibr": 3418,
      "loc": 3419,
      "loses": 3420,
      "imes": 3421,
      "vert": 3422,
      "filling": 3423,
      "lig": 3424,
      "liday": 3425,
      "lived": 3426,
      "roc": 3427,
      "filmed": 3428,
      "whel": 3429,
      "white": 3430,
      "noir": 3431,
      "adow": 3432,
      "within": 3433,
      "rian": 3434,
      "older": 3435,
      "amused": 3436,
      "amalan": 3437,
      "laps": 3438,
      "dign": 3439,
      "gem": 3440,
      "shadow": 3441,
      "terror": 3442,
      "feat": 3443,
      "poster": 3444,
      "condition": 3445,
      "artific": 3446,
      "anti": 3447,
      "ustin": 3448,
      "asts": 3449,
      "ager": 3450,
      "inted": 3451,
      "ified": 3452,
      "bother": 3453,
      "board": 3454,
      "bored": 3455,
      "auto": 3456,
      "acity": 3457,
      "comedic": 3458,
      "mental": 3459,
      "offering": 3460,
      "earth": 3461,
      "early": 3462,
      "phen": 3463,
      "overly": 3464,
      "drawn": 3465,
      "price": 3466,
      "timely": 3467,
      "obnox": 3468,
      "talking": 3469,
      "ensity": 3470,
      "cock": 3471,
      "despair": 3472,
      "realized": 3473,
      "aking": 3474,
      "ashed": 3475,
      "brought": 3476,
      "udicrous": 3477,
      "Cho": 3478,
      "mayhem": 3479,
      "orsese": 3480,
      "angle": 3481,
      "smarter": 3482,
      "longer": 3483,
      "cade": 3484,
      "caust": 3485,
      "holiday": 3486,
      "characteriz": 3487,
      "laughter": 3488,
      "turning": 3489,
      "stein": 3490,
      "strict": 3491,
      "enjoyed": 3492,
      "carries": 3493,
      "cheesy": 3494,
      "crack": 3495,
      "knowing": 3496,
      "knowledge": 3497,
      "avor": 3498,
      "farce": 3499,
      "hands": 3500,
      "glor": 3501,
      "buy": 3502,
      "leaving": 3503,
      "musical": 3504,
      "energetic": 3505,
      "rida": 3506,
      "market": 3507,
      "Unfortunately": 3508,
      "subjects": 3509,
      "visuals": 3510,
      "slick": 3511,
      "spirited": 3512,
      "save": 3513,
      "Boys": 3514,
      "satisf": 3515,
      "Roger": 3516,
      "Dog": 3517,
      "promising": 3518,
      "potential": 3519,
      "suspenseful": 3520,
      "affir": 3521,
      "adequ": 3522,
      "structure": 3523,
      "Barry": 3524,
      "cruel": 3525,
      "dazzling": 3526,
      "affecting": 3527,
      "drown": 3528,
      "relev": 3529,
      "revealing": 3530,
      "confusing": 3531,
      "sympathy": 3532,
      "refreshingly": 3533,
      "development": 3534,
      "bershop": 3535,
      "spoof": 3536,
      "funniest": 3537,
      "labor": 3538,
      "substance": 3539,
      "standards": 3540,
      "Scot": 3541,
      "Scorsese": 3542,
      "concerned": 3543,
      "splendid": 3544,
      "horrible": 3545,
      "source": 3546,
      "consistently": 3547,
      "Friday": 3548,
      "Paul": 3549,
      "sacri": 3550,
      "deftly": 3551,
      "struggle": 3552,
      "Showtime": 3553,
      "undeniably": 3554,
      "philosophical": 3555,
      "charisma": 3556,
      "designed": 3557,
      "Secret": 3558,
      "dreary": 3559,
      "aspects": 3560,
      "connect": 3561,
      "achieves": 3562,
      "devastating": 3563,
      "bizarre": 3564,
      "ovich": 3565,
      "compassion": 3566,
      "glimpse": 3567,
      "public": 3568,
      "Dickens": 3569,
      "Ultimately": 3570,
      "victim": 3571,
      "stomach": 3572,
      "stirring": 3573,
      "conflict": 3574,
      "Broomfield": 3575,
      "dimensional": 3576,
      "indeed": 3577,
      "recycl": 3578,
      "perspective": 3579,
      "including": 3580,
      "behavior": 3581,
      "Another": 3582,
      "Shyamalan": 3583,
      "Washington": 3584,
      "escape": 3585,
      "vibrant": 3586,
      "artificial": 3587,
      "Am": 3588,
      "Bir": 3589,
      "Coun": 3590,
      "Fest": 3591,
      "Fire": 3592,
      "Great": 3593,
      "Gener": 3594,
      "Greek": 3595,
      "Hop": 3596,
      "Iran": 3597,
      "Jer": 3598,
      "Jones": 3599,
      "Kore": 3600,
      "Master": 3601,
      "Over": 3602,
      "Que": 3603,
      "Ram": 3604,
      "Sa": 3605,
      "Sn": 3606,
      "Sum": 3607,
      "South": 3608,
      "Tr": 3609,
      "Tay": 3610,
      "Yes": 3611,
      "Yet": 3612,
      "awn": 3613,
      "bite": 3614,
      "baff": 3615,
      "cable": 3616,
      "cell": 3617,
      "dare": 3618,
      "ec": 3619,
      "eks": 3620,
      "fat": 3621,
      "fab": 3622,
      "ginal": 3623,
      "gloss": 3624,
      "hol": 3625,
      "ium": 3626,
      "junk": 3627,
      "lun": 3628,
      "later": 3629,
      "ludicrous": 3630,
      "mp": 3631,
      "oy": 3632,
      "ost": 3633,
      "pse": 3634,
      "pity": 3635,
      "rating": 3636,
      "sne": 3637,
      "spot": 3638,
      "songs": 3639,
      "smug": 3640,
      "ture": 3641,
      "tight": 3642,
      "trem": 3643,
      "va": 3644,
      "vamp": 3645,
      "ws": 3646,
      "wide": 3647,
      "third": 3648,
      "ining": 3649,
      "incre": 3650,
      "rey": 3651,
      "remo": 3652,
      "remin": 3653,
      "report": 3654,
      "represents": 3655,
      "enn": 3656,
      "ened": 3657,
      "enced": 3658,
      "onto": 3659,
      "onna": 3660,
      "oric": 3661,
      "orous": 3662,
      "alk": 3663,
      "arri": 3664,
      "ario": 3665,
      "stre": 3666,
      "store": 3667,
      "starring": 3668,
      "lyn": 3669,
      "lying": 3670,
      "tool": 3671,
      "toss": 3672,
      "iced": 3673,
      "ilty": 3674,
      "aside": 3675,
      "lex": 3676,
      "lean": 3677,
      "lection": 3678,
      "chase": 3679,
      "sees": 3680,
      "unintent": 3681,
      "unnecessary": 3682,
      "max": 3683,
      "maudlin": 3684,
      "viously": 3685,
      "raid": 3686,
      "deb": 3687,
      "def": 3688,
      "deem": 3689,
      "deeper": 3690,
      "aby": 3691,
      "ablish": 3692,
      "forgotten": 3693,
      "vern": 3694,
      "rope": 3695,
      "comment": 3696,
      "whom": 3697,
      "nowhere": 3698,
      "advan": 3699,
      "oll": 3700,
      "ambig": 3701,
      "ersweet": 3702,
      "irre": 3703,
      "lazy": 3704,
      "yous": 3705,
      "diver": 3706,
      "moviegoers": 3707,
      "territ": 3708,
      "exper": 3709,
      "exhilarating": 3710,
      "net": 3711,
      "peare": 3712,
      "establish": 3713,
      "const": 3714,
      "sco": 3715,
      "hair": 3716,
      "Italian": 3717,
      "preach": 3718,
      "proper": 3719,
      "note": 3720,
      "wears": 3721,
      "somewhere": 3722,
      "astic": 3723,
      "intensity": 3724,
      "team": 3725,
      "teach": 3726,
      "acqu": 3727,
      "placed": 3728,
      "travel": 3729,
      "trapp": 3730,
      "meandering": 3731,
      "rying": 3732,
      "overwhel": 3733,
      "humour": 3734,
      "canny": 3735,
      "Why": 3736,
      "plod": 3737,
      "plots": 3738,
      "covery": 3739,
      "ideal": 3740,
      "serves": 3741,
      "discover": 3742,
      "discovery": 3743,
      "directors": 3744,
      "desire": 3745,
      "izz": 3746,
      "realize": 3747,
      "playful": 3748,
      "aky": 3749,
      "ored": 3750,
      "vised": 3751,
      "ived": 3752,
      "joyous": 3753,
      "maybe": 3754,
      "heartwarming": 3755,
      "afraid": 3756,
      "seeking": 3757,
      "underst": 3758,
      "group": 3759,
      "century": 3760,
      "downright": 3761,
      "Starts": 3762,
      "host": 3763,
      "humorous": 3764,
      "pleasing": 3765,
      "pleasures": 3766,
      "biggest": 3767,
      "standing": 3768,
      "emotion": 3769,
      "Americans": 3770,
      "sitcom": 3771,
      "logic": 3772,
      "crazy": 3773,
      "finding": 3774,
      "thinks": 3775,
      "Dead": 3776,
      "succum": 3777,
      "Being": 3778,
      "member": 3779,
      "delivery": 3780,
      "Spider": 3781,
      "trouble": 3782,
      "experiences": 3783,
      "Unfaithful": 3784,
      "cloying": 3785,
      "commun": 3786,
      "personality": 3787,
      "parody": 3788,
      "distingu": 3789,
      "slice": 3790,
      "simplistic": 3791,
      "window": 3792,
      "surely": 3793,
      "elessly": 3794,
      "superb": 3795,
      "delightfully": 3796,
      "exploitation": 3797,
      "happy": 3798,
      "impression": 3799,
      "fantast": 3800,
      "values": 3801,
      "retread": 3802,
      "zzle": 3803,
      "levels": 3804,
      "suffering": 3805,
      "honestly": 3806,
      "rises": 3807,
      "example": 3808,
      "Barbershop": 3809,
      "presence": 3810,
      "violent": 3811,
      "details": 3812,
      "appropri": 3813,
      "beginning": 3814,
      "understanding": 3815,
      "Everything": 3816,
      "techno": 3817,
      "sympathetic": 3818,
      "grows": 3819,
      "executed": 3820,
      "tasteful": 3821,
      "listless": 3822,
      "calcul": 3823,
      "combination": 3824,
      "stunning": 3825,
      "poetic": 3826,
      "desperation": 3827,
      "desperate": 3828,
      "demands": 3829,
      "actresses": 3830,
      "Godard": 3831,
      "amazing": 3832,
      "packed": 3833,
      "unfolds": 3834,
      "twisted": 3835,
      "various": 3836,
      "Christian": 3837,
      "Christmas": 3838,
      "detailed": 3839,
      "sleep": 3840,
      "grown": 3841,
      "rewarding": 3842,
      "observations": 3843,
      "society": 3844,
      "resonant": 3845,
      "Beautifully": 3846,
      "\\*\\*": 3847,
      "quisite": 3848,
      "guns": 3849,
      "attered": 3850,
      "costum": 3851,
      "precious": 3852,
      "elegant": 3853,
      "recogn": 3854,
      "predecessor": 3855,
      "achievement": 3856,
      "compromising": 3857,
      "repetitive": 3858,
      "Plays": 3859,
      "protagonist": 3860,
      "captivating": 3861,
      "professional": 3862,
      "Offers": 3863,
      "competent": 3864,
      "irritating": 3865,
      "digital": 3866,
      "intoxicating": 3867,
      "visceral": 3868,
      "gradually": 3869,
      "English": 3870,
      "Shakespeare": 3871,
      "wannabe": 3872,
      "mesmerizing": 3873,
      "nasty": 3874,
      "lapses": 3875,
      "obnoxious": 3876,
      "Queen": 3877,
      "territory": 3878,
      "experiment": 3879,
      "trappings": 3880,
      "11": 3881,
      "13": 3882,
      "51": 3883,
      "Ass": 3884,
      "Best": 3885,
      "Bart": 3886,
      "Bru": 3887,
      "Black": 3888,
      "Burns": 3889,
      "Clo": 3890,
      "Clau": 3891,
      "Don": 3892,
      "Ever": 3893,
      "Eight": 3894,
      "Fun": 3895,
      "Fears": 3896,
      "Gang": 3897,
      "His": 3898,
      "Hum": 3899,
      "Hay": 3900,
      "Hart": 3901,
      "Hill": 3902,
      "Here": 3903,
      "Hard": 3904,
      "Hot": 3905,
      "Jag": 3906,
      "Jud": 3907,
      "Ko": 3908,
      "Last": 3909,
      "Long": 3910,
      "Mel": 3911,
      "Pay": 3912,
      "Phil": 3913,
      "Red": 3914,
      "Ret": 3915,
      "Rarely": 3916,
      "Sco": 3917,
      "Sug": 3918,
      "Sade": 3919,
      "Tru": 3920,
      "Vin": 3921,
      "Viet": 3922,
      "Woo": 3923,
      "Yu": 3924,
      "awe": 3925,
      "bits": 3926,
      "bid": 3927,
      "bang": 3928,
      "bunch": 3929,
      "cid": 3930,
      "cup": 3931,
      "dar": 3932,
      "ded": 3933,
      "dud": 3934,
      "dys": 3935,
      "dress": 3936,
      "danger": 3937,
      "eer": 3938,
      "fate": 3939,
      "ga": 3940,
      "gap": 3941,
      "hi": 3942,
      "hes": 3943,
      "hur": 3944,
      "iful": 3945,
      "jud": 3946,
      "lon": 3947,
      "luster": 3948,
      "mult": 3949,
      "mouth": 3950,
      "nom": 3951,
      "ology": 3952,
      "pin": 3953,
      "rough": 3954,
      "sil": 3955,
      "smo": 3956,
      "sive": 3957,
      "sag": 3958,
      "sque": 3959,
      "tre": 3960,
      "tally": 3961,
      "tong": 3962,
      "tour": 3963,
      "tick": 3964,
      "tempt": 3965,
      "ub": 3966,
      "uable": 3967,
      "uity": 3968,
      "ugg": 3969,
      "vap": 3970,
      "vard": 3971,
      "wick": 3972,
      "wife": 3973,
      "incon": 3974,
      "inder": 3975,
      "inated": 3976,
      "influ": 3977,
      "incoherent": 3978,
      "ann": 3979,
      "erable": 3980,
      "relies": 3981,
      "envi": 3982,
      "enthr": 3983,
      "encounter": 3984,
      "enorm": 3985,
      "ativity": 3986,
      "oring": 3987,
      "orient": 3988,
      "ition": 3989,
      "although": 3990,
      "arad": 3991,
      "sting": 3992,
      "stif": 3993,
      "stuck": 3994,
      "staged": 3995,
      "lyrical": 3996,
      "total": 3997,
      "totally": 3998,
      "edited": 3999,
      "icy": 4000,
      "ilt": 4001,
      "iled": 4002,
      "asive": 4003,
      "asingly": 4004,
      "asks": 4005,
      "ella": 4006,
      "heard": 4007,
      "separ": 4008,
      "unlike": 4009,
      "unlikely": 4010,
      "unusual": 4011,
      "uninspired": 4012,
      "unpleasant": 4013,
      "uncompromising": 4014,
      "ray": 4015,
      "raise": 4016,
      "depart": 4017,
      "locaust": 4018,
      "imsy": 4019,
      "ford": 4020,
      "format": 4021,
      "forward": 4022,
      "common": 4023,
      "whatever": 4024,
      "nold": 4025,
      "suit": 4026,
      "superi": 4027,
      "advert": 4028,
      "olation": 4029,
      "outs": 4030,
      "ami": 4031,
      "irst": 4032,
      "youth": 4033,
      "acts": 4034,
      "moviemaking": 4035,
      "term": 4036,
      "exceed": 4037,
      "neider": 4038,
      "esty": 4039,
      "ument": 4040,
      "poem": 4041,
      "consp": 4042,
      "constru": 4043,
      "scr": 4044,
      "scale": 4045,
      "eman": 4046,
      "emplo": 4047,
      "illustr": 4048,
      "urday": 4049,
      "manage": 4050,
      "prove": 4051,
      "provid": 4052,
      "timing": 4053,
      "charine": 4054,
      "charmer": 4055,
      "charms": 4056,
      "spy": 4057,
      "spell": 4058,
      "agers": 4059,
      "evolution": 4060,
      "intric": 4061,
      "indu": 4062,
      "endless": 4063,
      "oks": 4064,
      "oked": 4065,
      "box": 4066,
      "augh": 4067,
      "aught": 4068,
      "author": 4069,
      "accur": 4070,
      "account": 4071,
      "lessness": 4072,
      "ishes": 4073,
      "meets": 4074,
      "worked": 4075,
      "clarity": 4076,
      "ffic": 4077,
      "offbeat": 4078,
      "creation": 4079,
      "ief": 4080,
      "insane": 4081,
      "fake": 4082,
      "flin": 4083,
      "Where": 4084,
      "White": 4085,
      "talents": 4086,
      "surreal": 4087,
      "ensions": 4088,
      "ensible": 4089,
      "serve": 4090,
      "disc": 4091,
      "ache": 4092,
      "screenwriter": 4093,
      "screenwriters": 4094,
      "acks": 4095,
      "ips": 4096,
      "Chines": 4097,
      "type": 4098,
      "dub": 4099,
      "blend": 4100,
      "hearts": 4101,
      "grat": 4102,
      "gritty": 4103,
      "plotting": 4104,
      "centric": 4105,
      "answers": 4106,
      "aware": 4107,
      "caper": 4108,
      "myth": 4109,
      "pressed": 4110,
      "bitter": 4111,
      "atures": 4112,
      "laughing": 4113,
      "laughable": 4114,
      "imagery": 4115,
      "background": 4116,
      "ggy": 4117,
      "gging": 4118,
      "giant": 4119,
      "giving": 4120,
      "control": 4121,
      "sequels": 4122,
      "crass": 4123,
      "easier": 4124,
      "handsome": 4125,
      "titles": 4126,
      "relatively": 4127,
      "buff": 4128,
      "buoy": 4129,
      "originality": 4130,
      "Death": 4131,
      "flair": 4132,
      "wanted": 4133,
      "umbs": 4134,
      "appear": 4135,
      "fied": 4136,
      "cliched": 4137,
      "Sea": 4138,
      "ibility": 4139,
      "committed": 4140,
      "persona": 4141,
      "touches": 4142,
      "witness": 4143,
      "portrayal": 4144,
      "born": 4145,
      "195": 4146,
      "198": 4147,
      "melan": 4148,
      "Reign": 4149,
      "sensational": 4150,
      "Schneider": 4151,
      "transp": 4152,
      "wait": 4153,
      "sentimentality": 4154,
      "fairy": 4155,
      "Davis": 4156,
      "Manh": 4157,
      "Heaven": 4158,
      "folks": 4159,
      "crude": 4160,
      "block": 4161,
      "drop": 4162,
      "signific": 4163,
      "exceptional": 4164,
      "latter": 4165,
      "amounts": 4166,
      "intentions": 4167,
      "fights": 4168,
      "fighting": 4169,
      "developed": 4170,
      "lifting": 4171,
      "finale": 4172,
      "patience": 4173,
      "stunts": 4174,
      "sophom": 4175,
      "desperately": 4176,
      "delivered": 4177,
      "subtlety": 4178,
      "Once": 4179,
      "explic": 4180,
      "spectacular": 4181,
      "ivalent": 4182,
      "Girls": 4183,
      "Howard": 4184,
      "Poke": 4185,
      "flashy": 4186,
      "limited": 4187,
      "attract": 4188,
      "attractive": 4189,
      "unfocused": 4190,
      "vividly": 4191,
      "Harvard": 4192,
      "beneath": 4193,
      "burst": 4194,
      "consistent": 4195,
      "faced": 4196,
      "innov": 4197,
      "innocence": 4198,
      "revelatory": 4199,
      "improve": 4200,
      "Guy": 4201,
      "Monty": 4202,
      "numbers": 4203,
      "saccharine": 4204,
      "reminds": 4205,
      "Mostly": 4206,
      "homage": 4207,
      "determined": 4208,
      "transform": 4209,
      "Swim": 4210,
      "Wilde": 4211,
      "gangster": 4212,
      "known": 4213,
      "somber": 4214,
      "language": 4215,
      "Nicholas": 4216,
      "rhythms": 4217,
      "Eddie": 4218,
      "vulgar": 4219,
      "supporting": 4220,
      "bodies": 4221,
      "rendered": 4222,
      "crisp": 4223,
      "intellectual": 4224,
      "accomplished": 4225,
      "Russian": 4226,
      "Saturday": 4227,
      "gifted": 4228,
      "dependent": 4229,
      "references": 4230,
      "stereotypes": 4231,
      "Holocaust": 4232,
      "candy": 4233,
      "depiction": 4234,
      "accessible": 4235,
      "heartbreaking": 4236,
      "spooky": 4237,
      "villain": 4238,
      "challenging": 4239,
      "Kissinger": 4240,
      "DVD": 4241,
      "Gosling": 4242,
      "Madonna": 4243,
      "admirable": 4244,
      "adolescent": 4245,
      "outrageous": 4246,
      "proceedings": 4247,
      "Earnest": 4248,
      "Santa": 4249,
      "bittersweet": 4250,
      "dignity": 4251,
      "relevant": 4252,
      "Festival": 4253,
      "Hopkins": 4254,
      "Trouble": 4255,
      "increasingly": 4256,
      "commentary": 4257,
      "Sugar": 4258,
      "Vietnam": 4259,
      "lonel": 4260,
      "environ": 4261,
      "superior": 4262,
      "Chinese": 4263,
      "12": 4264,
      "15": 4265,
      "Afr": 4266,
      "Austin": 4267,
      "Blo": 4268,
      "Bet": 4269,
      "Cr": 4270,
      "Che": 4271,
      "Call": 4272,
      "Cha": 4273,
      "Cru": 4274,
      "Cher": 4275,
      "Den": 4276,
      "Dem": 4277,
      "Dev": 4278,
      "Dream": 4279,
      "Eve": 4280,
      "East": 4281,
      "Fin": 4282,
      "Fra": 4283,
      "Fred": 4284,
      "Ga": 4285,
      "Hen": 4286,
      "Hall": 4287,
      "Haw": 4288,
      "Hitch": 4289,
      "Ice": 4290,
      "Imag": 4291,
      "Jon": 4292,
      "Jim": 4293,
      "Kap": 4294,
      "Kau": 4295,
      "Kline": 4296,
      "Kung": 4297,
      "Land": 4298,
      "Mi": 4299,
      "Men": 4300,
      "Mus": 4301,
      "Mid": 4302,
      "Mac": 4303,
      "Mike": 4304,
      "Miller": 4305,
      "None": 4306,
      "Pho": 4307,
      "Pret": 4308,
      "Ra": 4309,
      "Res": 4310,
      "Rod": 4311,
      "Rich": 4312,
      "Sim": 4313,
      "Sad": 4314,
      "Simp": 4315,
      "Snow": 4316,
      "Scr": 4317,
      "Suff": 4318,
      "Tun": 4319,
      "Take": 4320,
      "Very": 4321,
      "West": 4322,
      "Women": 4323,
      "aa": 4324,
      "ape": 4325,
      "ahead": 4326,
      "bone": 4327,
      "bum": 4328,
      "burn": 4329,
      "bree": 4330,
      "blast": 4331,
      "bomb": 4332,
      "cate": 4333,
      "cry": 4334,
      "dut": 4335,
      "eager": 4336,
      "fman": 4337,
      "fif": 4338,
      "gust": 4339,
      "gru": 4340,
      "gree": 4341,
      "games": 4342,
      "hall": 4343,
      "hitting": 4344,
      "iently": 4345,
      "image": 4346,
      "jol": 4347,
      "jinsky": 4348,
      "ka": 4349,
      "lor": 4350,
      "lom": 4351,
      "limp": 4352,
      "met": 4353,
      "mass": 4354,
      "nical": 4355,
      "ochy": 4356,
      "ping": 4357,
      "pil": 4358,
      "pnot": 4359,
      "pts": 4360,
      "rup": 4361,
      "rise": 4362,
      "rink": 4363,
      "sion": 4364,
      "sun": 4365,
      "sill": 4366,
      "sell": 4367,
      "song": 4368,
      "six": 4369,
      "tun": 4370,
      "tab": 4371,
      "tort": 4372,
      "udo": 4373,
      "vs": 4374,
      "vital": 4375,
      "wed": 4376,
      "went": 4377,
      "wound": 4378,
      "wrench": 4379,
      "za": 4380,
      "zo": 4381,
      "zero": 4382,
      "tha": 4383,
      "thous": 4384,
      "thday": 4385,
      "indi": 4386,
      "inev": 4387,
      "incess": 4388,
      "inexplic": 4389,
      "erce": 4390,
      "rek": 4391,
      "rep": 4392,
      "rece": 4393,
      "rehas": 4394,
      "reput": 4395,
      "resem": 4396,
      "redeem": 4397,
      "replaced": 4398,
      "endi": 4399,
      "encou": 4400,
      "ators": 4401,
      "ision": 4402,
      "isive": 4403,
      "isingly": 4404,
      "onscreen": 4405,
      "esh": 4406,
      "esque": 4407,
      "org": 4408,
      "ority": 4409,
      "anders": 4410,
      "alle": 4411,
      "arth": 4412,
      "stink": 4413,
      "toler": 4414,
      "educ": 4415,
      "ica": 4416,
      "icon": 4417,
      "icip": 4418,
      "icism": 4419,
      "lem": 4420,
      "cher": 4421,
      "chilly": 4422,
      "chuck": 4423,
      "heal": 4424,
      "hetto": 4425,
      "secre": 4426,
      "unab": 4427,
      "unoriginal": 4428,
      "unpredictable": 4429,
      "unconvincing": 4430,
      "unimaginative": 4431,
      "ram": 4432,
      "rael": 4433,
      "raunch": 4434,
      "raging": 4435,
      "dealing": 4436,
      "degree": 4437,
      "loves": 4438,
      "loving": 4439,
      "loose": 4440,
      "loved": 4441,
      "improb": 4442,
      "abama": 4443,
      "forts": 4444,
      "forgive": 4445,
      "roles": 4446,
      "compla": 4447,
      "whims": 4448,
      "sud": 4449,
      "adv": 4450,
      "adds": 4451,
      "rium": 4452,
      "riage": 4453,
      "outside": 4454,
      "irony": 4455,
      "irresist": 4456,
      "lace": 4457,
      "shop": 4458,
      "femin": 4459,
      "exotic": 4460,
      "exquisite": 4461,
      "neo": 4462,
      "estic": 4463,
      "ummy": 4464,
      "conj": 4465,
      "consu": 4466,
      "percept": 4467,
      "perverse": 4468,
      "screw": 4469,
      "tap": 4470,
      "tail": 4471,
      "tasty": 4472,
      "sober": 4473,
      "empower": 4474,
      "empathy": 4475,
      "illed": 4476,
      "romp": 4477,
      "quil": 4478,
      "usive": 4479,
      "usband": 4480,
      "prop": 4481,
      "istically": 4482,
      "notch": 4483,
      "web": 4484,
      "spent": 4485,
      "spend": 4486,
      "spite": 4487,
      "spring": 4488,
      "evocative": 4489,
      "igg": 4490,
      "igma": 4491,
      "igno": 4492,
      "maker": 4493,
      "aud": 4494,
      "eping": 4495,
      "lesson": 4496,
      "Angel": 4497,
      "trade": 4498,
      "traction": 4499,
      "icken": 4500,
      "mechan": 4501,
      "These": 4502,
      "guarant": 4503,
      "creativity": 4504,
      "overwrought": 4505,
      "dramat": 4506,
      "drags": 4507,
      "prison": 4508,
      "fluff": 4509,
      "assin": 4510,
      "Who": 4511,
      "paid": 4512,
      "orton": 4513,
      "ensely": 4514,
      "display": 4515,
      "minimal": 4516,
      "gender": 4517,
      "genial": 4518,
      "rang": 4519,
      "looked": 4520,
      "compar": 4521,
      "screenwriting": 4522,
      "efforts": 4523,
      "yearning": 4524,
      "Chou": 4525,
      "Chab": 4526,
      "nevertheless": 4527,
      "due": 4528,
      "dual": 4529,
      "duct": 4530,
      "trifle": 4531,
      "Inter": 4532,
      "particip": 4533,
      "anging": 4534,
      "award": 4535,
      "downtown": 4536,
      "pecul": 4537,
      "Stone": 4538,
      "caution": 4539,
      "attan": 4540,
      "ocus": 4541,
      "igni": 4542,
      "warning": 4543,
      "rowing": 4544,
      "biting": 4545,
      "views": 4546,
      "scenario": 4547,
      "mistake": 4548,
      "bigger": 4549,
      "athers": 4550,
      "athlet": 4551,
      "stands": 4552,
      "string": 4553,
      "collect": 4554,
      "nerve": 4555,
      "cuts": 4556,
      "cutting": 4557,
      "spirits": 4558,
      "pretends": 4559,
      "pretension": 4560,
      "cynical": 4561,
      "gently": 4562,
      "arris": 4563,
      "crap": 4564,
      "contro": 4565,
      "satir": 4566,
      "redund": 4567,
      "cares": 4568,
      "flav": 4569,
      "expectation": 4570,
      "expectations": 4571,
      "messages": 4572,
      "Alabama": 4573,
      "fierce": 4574,
      "shocks": 4575,
      "Spir": 4576,
      "Seem": 4577,
      "Under": 4578,
      "brea": 4579,
      "element": 4580,
      "hybrid": 4581,
      "mira": 4582,
      "parable": 4583,
      "distur": 4584,
      "distance": 4585,
      "strain": 4586,
      "skip": 4587,
      "borrow": 4588,
      "wondering": 4589,
      "winner": 4590,
      "199": 4591,
      "teenagers": 4592,
      "mainly": 4593,
      "maintain": 4594,
      "features": 4595,
      "factor": 4596,
      "smartly": 4597,
      "Boy": 4598,
      "olutions": 4599,
      "masterful": 4600,
      "capture": 4601,
      "Read": 4602,
      "ciful": 4603,
      "startling": 4604,
      "exploitative": 4605,
      "banal": 4606,
      "sadness": 4607,
      "letting": 4608,
      "fanciful": 4609,
      "hoping": 4610,
      "waiting": 4611,
      "retro": 4612,
      "Attraction": 4613,
      "broken": 4614,
      "Ending": 4615,
      "basic": 4616,
      "channel": 4617,
      "insights": 4618,
      "Rober": 4619,
      "potentially": 4620,
      "damn": 4621,
      "damned": 4622,
      "luck": 4623,
      "nonsense": 4624,
      "ticket": 4625,
      "convinced": 4626,
      "Jackie": 4627,
      "dynam": 4628,
      "destru": 4629,
      "larger": 4630,
      "equivalent": 4631,
      "slowly": 4632,
      "mixture": 4633,
      "crush": 4634,
      "Martha": 4635,
      "psychology": 4636,
      "signs": 4637,
      "reveal": 4638,
      "settles": 4639,
      "strike": 4640,
      "Worth": 4641,
      "pedest": 4642,
      "confident": 4643,
      "symbol": 4644,
      "passionate": 4645,
      "friends": 4646,
      "added": 4647,
      "Stealing": 4648,
      "Warm": 4649,
      "figures": 4650,
      "journal": 4651,
      "credibility": 4652,
      "Israel": 4653,
      "aims": 4654,
      "disappointing": 4655,
      "disappointed": 4656,
      "delicately": 4657,
      "Wallace": 4658,
      "swallow": 4659,
      "lifeless": 4660,
      "extravag": 4661,
      "considered": 4662,
      "walk": 4663,
      "theatre": 4664,
      "theaters": 4665,
      "theatrical": 4666,
      "stunt": 4667,
      "hopeful": 4668,
      "endeavor": 4669,
      "demanding": 4670,
      "emerge": 4671,
      "episod": 4672,
      "substit": 4673,
      "Murder": 4674,
      "Nijinsky": 4675,
      "copy": 4676,
      "existential": 4677,
      "concert": 4678,
      "horrifying": 4679,
      "repeated": 4680,
      "admit": 4681,
      "admire": 4682,
      "presented": 4683,
      "guilt": 4684,
      "Blair": 4685,
      "benef": 4686,
      "fool": 4687,
      "winds": 4688,
      "mission": 4689,
      "shooting": 4690,
      "literary": 4691,
      "Powers": 4692,
      "claim": 4693,
      "pulls": 4694,
      "testament": 4695,
      "stays": 4696,
      "searching": 4697,
      "poignancy": 4698,
      "choppy": 4699,
      "continues": 4700,
      "undeniable": 4701,
      "marvelous": 4702,
      "breathtaking": 4703,
      "vague": 4704,
      "enthusiasm": 4705,
      "determination": 4706,
      "Benigni": 4707,
      "Often": 4708,
      "Roman": 4709,
      "dancing": 4710,
      "stock": 4711,
      "Anyone": 4712,
      "apparently": 4713,
      "Nicholson": 4714,
      "rhythm": 4715,
      "reasure": 4716,
      "clumsy": 4717,
      "relentlessly": 4718,
      "Smoochy": 4719,
      "drugs": 4720,
      "false": 4721,
      "changes": 4722,
      "introdu": 4723,
      "Damned": 4724,
      "Evans": 4725,
      "Hugh": 4726,
      "transcend": 4727,
      "responsible": 4728,
      "Family": 4729,
      "Remember": 4730,
      "eloquent": 4731,
      "functional": 4732,
      "traditional": 4733,
      "Indian": 4734,
      "Nickleby": 4735,
      "Pianist": 4736,
      "Stock": 4737,
      "Tuxed": 4738,
      "characterizations": 4739,
      "affirming": 4740,
      "Scott": 4741,
      "Birthday": 4742,
      "Country": 4743,
      "Iranian": 4744,
      "Ramsay": 4745,
      "eccentric": 4746,
      "vampire": 4747,
      "remote": 4748,
      "street": 4749,
      "advantage": 4750,
      "diverting": 4751,
      "fantastic": 4752,
      "appropriate": 4753,
      "Jaglom": 4754,
      "Scoo": 4755,
      "dysfunctional": 4756,
      "multi": 4757,
      "tongue": 4758,
      "vapid": 4759,
      "enthralling": 4760,
      "construction": 4761,
      "flinching": 4762,
      "buoyant": 4763,
      "Manhattan": 4764,
      "Pokemon": 4765,
      "loneliness": 4766,
      "Frailty": 4767,
      "Imagine": 4768,
      "Kapur": 4769,
      "Kaufman": 4770,
      "Scratch": 4771,
      "breezy": 4772,
      "wrenching": 4773,
      "whimsical": 4774,
      "guarante": 4775,
      "cautionary": 4776,
      "Tuxedo": 4777,
      "21": 4778,
      "Av": 4779,
      "Ama": 4780,
      "Austr": 4781,
      "Bal": 4782,
      "Bow": 4783,
      "Brid": 4784,
      "Bride": 4785,
      "Cat": 4786,
      "Cor": 4787,
      "Cam": 4788,
      "Cir": 4789,
      "Could": 4790,
      "Dong": 4791,
      "Down": 4792,
      "Es": 4793,
      "Evil": 4794,
      "Fish": 4795,
      "Ferr": 4796,
      "Frida": 4797,
      "Gl": 4798,
      "Ger": 4799,
      "Hun": 4800,
      "Hell": 4801,
      "Hup": 4802,
      "Hong": 4803,
      "Happy": 4804,
      "Hours": 4805,
      "Jan": 4806,
      "Jew": 4807,
      "Jacqu": 4808,
      "Ken": 4809,
      "Kur": 4810,
      "Kong": 4811,
      "Ly": 4812,
      "Lad": 4813,
      "Less": 4814,
      "Life": 4815,
      "Lips": 4816,
      "Met": 4817,
      "Mich": 4818,
      "Mary": 4819,
      "Nic": 4820,
      "Nair": 4821,
      "Narc": 4822,
      "Oli": 4823,
      "Pic": 4824,
      "Rol": 4825,
      "Ritch": 4826,
      "Revolution": 4827,
      "Sy": 4828,
      "Sil": 4829,
      "Sie": 4830,
      "Sever": 4831,
      "Sign": 4832,
      "Tri": 4833,
      "Tran": 4834,
      "Tsa": 4835,
      "Up": 4836,
      "Vis": 4837,
      "Wel": 4838,
      "Wow": 4839,
      "Wind": 4840,
      "Wonder": 4841,
      "Witch": 4842,
      "Whether": 4843,
      "bri": 4844,
      "bla": 4845,
      "bull": 4846,
      "cil": 4847,
      "cus": 4848,
      "civ": 4849,
      "dic": 4850,
      "dup": 4851,
      "dated": 4852,
      "dance": 4853,
      "dying": 4854,
      "eve": 4855,
      "econ": 4856,
      "egg": 4857,
      "evid": 4858,
      "fable": 4859,
      "faster": 4860,
      "frank": 4861,
      "fizz": 4862,
      "gdan": 4863,
      "han": 4864,
      "hat": 4865,
      "hid": 4866,
      "ior": 4867,
      "ima": 4868,
      "ja": 4869,
      "jerk": 4870,
      "knew": 4871,
      "lends": 4872,
      "lump": 4873,
      "mart": 4874,
      "nia": 4875,
      "nific": 4876,
      "osy": 4877,
      "pale": 4878,
      "puff": 4879,
      "rat": 4880,
      "rand": 4881,
      "sno": 4882,
      "ske": 4883,
      "send": 4884,
      "sily": 4885,
      "sky": 4886,
      "sane": 4887,
      "tly": 4888,
      "tro": 4889,
      "tend": 4890,
      "tiny": 4891,
      "uation": 4892,
      "vol": 4893,
      "vity": 4894,
      "wra": 4895,
      "wall": 4896,
      "wash": 4897,
      "yingly": 4898,
      "zone": 4899,
      "zingly": 4900,
      "zzy": 4901,
      "inh": 4902,
      "inane": 4903,
      "inherent": 4904,
      "independent": 4905,
      "angh": 4906,
      "angu": 4907,
      "reck": 4908,
      "reven": 4909,
      "returns": 4910,
      "redem": 4911,
      "iso": 4912,
      "oning": 4913,
      "inging": 4914,
      "orate": 4915,
      "ali": 4916,
      "oft": 4917,
      "ara": 4918,
      "arg": 4919,
      "arrest": 4920,
      "stil": 4921,
      "stro": 4922,
      "lym": 4923,
      "icago": 4924,
      "ases": 4925,
      "omer": 4926,
      "leon": 4927,
      "lear": 4928,
      "learn": 4929,
      "chew": 4930,
      "moves": 4931,
      "elic": 4932,
      "ctic": 4933,
      "ctim": 4934,
      "het": 4935,
      "hear": 4936,
      "height": 4937,
      "sey": 4938,
      "becoming": 4939,
      "behold": 4940,
      "unner": 4941,
      "unforced": 4942,
      "unfortunately": 4943,
      "unbear": 4944,
      "unlikable": 4945,
      "uncanny": 4946,
      "unflinching": 4947,
      "race": 4948,
      "racial": 4949,
      "raised": 4950,
      "defi": 4951,
      "loween": 4952,
      "losing": 4953,
      "imen": 4954,
      "former": 4955,
      "formed": 4956,
      "versy": 4957,
      "lier": 4958,
      "roph": 4959,
      "wholly": 4960,
      "noble": 4961,
      "nostal": 4962,
      "suited": 4963,
      "ada": 4964,
      "adren": 4965,
      "olic": 4966,
      "outing": 4967,
      "essence": 4968,
      "iron": 4969,
      "diers": 4970,
      "diversion": 4971,
      "shif": 4972,
      "shelf": 4973,
      "shake": 4974,
      "fears": 4975,
      "expert": 4976,
      "exagger": 4977,
      "neat": 4978,
      "door": 4979,
      "odds": 4980,
      "pez": 4981,
      "umble": 4982,
      "poon": 4983,
      "poses": 4984,
      "powers": 4985,
      "conven": 4986,
      "convey": 4987,
      "pered": 4988,
      "perhaps": 4989,
      "ousness": 4990,
      "scare": 4991,
      "soci": 4992,
      "artif": 4993,
      "articul": 4994,
      "artists": 4995,
      "illum": 4996,
      "hap": 4997,
      "urge": 4998,
      "urous": 4999,
      "antial": 5000,
      "qual": 5001,
      "usal": 5002,
      "usions": 5003,
      "ids": 5004,
      "idan": 5005,
      "idel": 5006,
      "iders": 5007,
      "preposter": 5008,
      "ateau": 5009,
      "progress": 5010,
      "isters": 5011,
      "notion": 5012,
      "weigh": 5013,
      "charged": 5014,
      "spin": 5015,
      "astound": 5016,
      "aging": 5017,
      "aggress": 5018,
      "opic": 5019,
      "opening": 5020,
      "endlessly": 5021,
      "inee": 5022,
      "ifer": 5023,
      "ifying": 5024,
      "teens": 5025,
      "tears": 5026,
      "teeth": 5027,
      "pton": 5028,
      "directs": 5029,
      "tradition": 5030,
      "trailer": 5031,
      "ishingly": 5032,
      "clin": 5033,
      "mented": 5034,
      "matinee": 5035,
      "mush": 5036,
      "phys": 5037,
      "merit": 5038,
      "prise": 5039,
      "father": 5040,
      "flesh": 5041,
      "obbled": 5042,
      "oblig": 5043,
      "obviously": 5044,
      "tales": 5045,
      "coher": 5046,
      "disgu": 5047,
      "dispos": 5048,
      "achingly": 5049,
      "lingering": 5050,
      "players": 5051,
      "subculture": 5052,
      "rend": 5053,
      "ipes": 5054,
      "visit": 5055,
      "ultane": 5056,
      "brand": 5057,
      "China": 5058,
      "Chicago": 5059,
      "jointed": 5060,
      "magnific": 5061,
      "parts": 5062,
      "inking": 5063,
      "famous": 5064,
      "plotted": 5065,
      "resolutely": 5066,
      "answer": 5067,
      "engage": 5068,
      "hoot": 5069,
      "myself": 5070,
      "attitude": 5071,
      "versity": 5072,
      "versations": 5073,
      "shoulders": 5074,
      "venture": 5075,
      "ventures": 5076,
      "lightweight": 5077,
      "belt": 5078,
      "belongs": 5079,
      "choices": 5080,
      "caught": 5081,
      "pleaser": 5082,
      "capacity": 5083,
      "plan": 5084,
      "colors": 5085,
      "collabor": 5086,
      "extended": 5087,
      "carry": 5088,
      "carried": 5089,
      "cheek": 5090,
      "context": 5091,
      "sequential": 5092,
      "glory": 5093,
      "built": 5094,
      "dities": 5095,
      "kiddie": 5096,
      "keeping": 5097,
      "Deeds": 5098,
      "cultures": 5099,
      "singing": 5100,
      "cases": 5101,
      "casual": 5102,
      "possess": 5103,
      "freshness": 5104,
      "producer": 5105,
      "fix": 5106,
      "minds": 5107,
      "Forget": 5108,
      "ridden": 5109,
      "deliber": 5110,
      "graphical": 5111,
      "police": 5112,
      "trust": 5113,
      "trite": 5114,
      "See": 5115,
      "Without": 5116,
      "hype": 5117,
      "hypnot": 5118,
      "ibrium": 5119,
      "younger": 5120,
      "morality": 5121,
      "paran": 5122,
      "vino": 5123,
      "vintage": 5124,
      "childhood": 5125,
      "distract": 5126,
      "distinct": 5127,
      "witch": 5128,
      "portray": 5129,
      "halfway": 5130,
      "sons": 5131,
      "invest": 5132,
      "197": 5133,
      "teenage": 5134,
      "maintains": 5135,
      "midt": 5136,
      "cleverly": 5137,
      "corny": 5138,
      "corpor": 5139,
      "sake": 5140,
      "Bogdan": 5141,
      "Brosn": 5142,
      "sweetly": 5143,
      "heads": 5144,
      "terrifying": 5145,
      "problematic": 5146,
      "engaged": 5147,
      "masterfully": 5148,
      "delights": 5149,
      "Leigh": 5150,
      "Legged": 5151,
      "Real": 5152,
      "started": 5153,
      "quirks": 5154,
      "nail": 5155,
      "leaden": 5156,
      "popular": 5157,
      "Road": 5158,
      "Schmidt": 5159,
      "held": 5160,
      "helps": 5161,
      "transl": 5162,
      "reflect": 5163,
      "profile": 5164,
      "Shangh": 5165,
      "fellow": 5166,
      "Enigma": 5167,
      "base": 5168,
      "reasonably": 5169,
      "Mann": 5170,
      "portions": 5171,
      "finely": 5172,
      "lush": 5173,
      "lurid": 5174,
      "convince": 5175,
      "pastiche": 5176,
      "equal": 5177,
      "souls": 5178,
      "soulful": 5179,
      "soulless": 5180,
      "complexity": 5181,
      "Argent": 5182,
      "Arnold": 5183,
      "cuit": 5184,
      "Disguise": 5185,
      "deserved": 5186,
      "breaks": 5187,
      "balanced": 5188,
      "released": 5189,
      "deadly": 5190,
      "deadpan": 5191,
      "lively": 5192,
      "brilliantly": 5193,
      "Something": 5194,
      "Comp": 5195,
      "Carvey": 5196,
      "credible": 5197,
      "aimed": 5198,
      "harrowing": 5199,
      "ambition": 5200,
      "delicious": 5201,
      "fantasies": 5202,
      "sticks": 5203,
      "combined": 5204,
      "necessarily": 5205,
      "tragedies": 5206,
      "grandeur": 5207,
      "Lopez": 5208,
      "drive": 5209,
      "walked": 5210,
      "instantly": 5211,
      "instinct": 5212,
      "delivering": 5213,
      "critical": 5214,
      "occasional": 5215,
      "inspiration": 5216,
      "expression": 5217,
      "bringing": 5218,
      "following": 5219,
      "Britney": 5220,
      "square": 5221,
      "forceful": 5222,
      "fluid": 5223,
      "frustration": 5224,
      "Kidman": 5225,
      "attraction": 5226,
      "hugely": 5227,
      "Freaks": 5228,
      "rewd": 5229,
      "layers": 5230,
      "ethnic": 5231,
      "foot": 5232,
      "movements": 5233,
      "shocking": 5234,
      "Quiet": 5235,
      "rewards": 5236,
      "Columb": 5237,
      "Guys": 5238,
      "malt": 5239,
      "schmalt": 5240,
      "throws": 5241,
      "relig": 5242,
      "conceived": 5243,
      "Beauty": 5244,
      "curious": 5245,
      "curiously": 5246,
      "curiosity": 5247,
      "technical": 5248,
      "celebrates": 5249,
      "Fatal": 5250,
      "sweeping": 5251,
      "primarily": 5252,
      "Halloween": 5253,
      "domestic": 5254,
      "enthusiastic": 5255,
      "escapism": 5256,
      "fills": 5257,
      "remembered": 5258,
      "Secrets": 5259,
      "Adams": 5260,
      "knock": 5261,
      "savvy": 5262,
      "Caine": 5263,
      "Herzo": 5264,
      "bullets": 5265,
      "sketch": 5266,
      "sketchy": 5267,
      "alternative": 5268,
      "scape": 5269,
      "clumsily": 5270,
      "obsession": 5271,
      "absurdity": 5272,
      "Maybe": 5273,
      "alyze": 5274,
      "changing": 5275,
      "appreciate": 5276,
      "integrity": 5277,
      "photographed": 5278,
      "brutal": 5279,
      "describe": 5280,
      "Deli": 5281,
      "Smith": 5282,
      "Sorvino": 5283,
      "Sara": 5284,
      "XXX": 5285,
      "blown": 5286,
      "deceptively": 5287,
      "contradict": 5288,
      "talkers": 5289,
      "Storytelling": 5290,
      "Reno": 5291,
      "required": 5292,
      "ingenious": 5293,
      "rooting": 5294,
      "comprehensible": 5295,
      "measure": 5296,
      "similar": 5297,
      "France": 5298,
      "Palma": 5299,
      "Western": 5300,
      "dreadful": 5301,
      "sanctim": 5302,
      "featuring": 5303,
      "phenomen": 5304,
      "sacrific": 5305,
      "recycled": 5306,
      "Snipes": 5307,
      "baffling": 5308,
      "hollow": 5309,
      "pseudo": 5310,
      "tremend": 5311,
      "arrives": 5312,
      "unintentionally": 5313,
      "constant": 5314,
      "scope": 5315,
      "preachy": 5316,
      "plodding": 5317,
      "understated": 5318,
      "Hartley": 5319,
      "Philip": 5320,
      "Vincent": 5321,
      "nomination": 5322,
      "squee": 5323,
      "oriented": 5324,
      "conspira": 5325,
      "intricate": 5326,
      "sophomoric": 5327,
      "African": 5328,
      "Evelyn": 5329,
      "Henry": 5330,
      "Hitchcock": 5331,
      "Rodri": 5332,
      "Suffers": 5333,
      "category": 5334,
      "rupt": 5335,
      "silliness": 5336,
      "indivi": 5337,
      "encouraging": 5338,
      "improbable": 5339,
      "feminist": 5340,
      "empowerment": 5341,
      "trademark": 5342,
      "comparison": 5343,
      "Chabrol": 5344,
      "peculiar": 5345,
      "controversy": 5346,
      "Scooby": 5347,
      "Esther": 5348,
      "Fisher": 5349,
      "Huppert": 5350,
      "Ritchie": 5351,
      "Tsai": 5352,
      "Visually": 5353,
      "econom": 5354,
      "martial": 5355,
      "random": 5356,
      "revenge": 5357,
      "redemption": 5358,
      "adrenal": 5359,
      "artifice": 5360,
      "ultaneously": 5361,
      "magnificent": 5362,
      "Brosnan": 5363,
      "Shanghai": 5364,
      "Herzog": 5365,
      "100": 5366,
      "30": 5367,
      "300": 5368,
      "50": 5369,
      "60": 5370,
      "Aff": 5371,
      "Audi": 5372,
      "Acade": 5373,
      "Bol": 5374,
      "Ball": 5375,
      "Bard": 5376,
      "Bour": 5377,
      "Cla": 5378,
      "Care": 5379,
      "Cop": 5380,
      "Cross": 5381,
      "Clock": 5382,
      "Dou": 5383,
      "Dri": 5384,
      "Dum": 5385,
      "Dow": 5386,
      "Dig": 5387,
      "Dies": 5388,
      "Die": 5389,
      "Daw": 5390,
      "Dirty": 5391,
      "Eu": 5392,
      "Equil": 5393,
      "Fl": 5394,
      "Four": 5395,
      "Fron": 5396,
      "First": 5397,
      "Gri": 5398,
      "Got": 5399,
      "Ghost": 5400,
      "Han": 5401,
      "Hour": 5402,
      "Have": 5403,
      "Harris": 5404,
      "Ig": 5405,
      "Jess": 5406,
      "Ka": 5407,
      "Kiss": 5408,
      "Lar": 5409,
      "Lil": 5410,
      "Light": 5411,
      "Lew": 5412,
      "Lane": 5413,
      "Lacks": 5414,
      "Min": 5415,
      "Mer": 5416,
      "Mam": 5417,
      "Mex": 5418,
      "Mem": 5419,
      "Mag": 5420,
      "Mira": 5421,
      "Makes": 5422,
      "Nor": 5423,
      "Next": 5424,
      "Napo": 5425,
      "Pin": 5426,
      "Pri": 5427,
      "Pur": 5428,
      "Pac": 5429,
      "Pep": 5430,
      "Pie": 5431,
      "Play": 5432,
      "Parad": 5433,
      "Plym": 5434,
      "Rou": 5435,
      "Rand": 5436,
      "Ray": 5437,
      "Su": 5438,
      "Spe": 5439,
      "Sus": 5440,
      "Sher": 5441,
      "Side": 5442,
      "Tw": 5443,
      "Tam": 5444,
      "Tob": 5445,
      "Tuck": 5446,
      "Tarant": 5447,
      "Vi": 5448,
      "Wat": 5449,
      "Wars": 5450,
      "Wils": 5451,
      "Wendi": 5452,
      "Your": 5453,
      "Zone": 5454,
      "aes": 5455,
      "ail": 5456,
      "aves": 5457,
      "aque": 5458,
      "bod": 5459,
      "bare": 5460,
      "bage": 5461,
      "bber": 5462,
      "brow": 5463,
      "bath": 5464,
      "bond": 5465,
      "bord": 5466,
      "cro": 5467,
      "cri": 5468,
      "cure": 5469,
      "cow": 5470,
      "cingly": 5471,
      "dd": 5472,
      "drum": 5473,
      "dirty": 5474,
      "drink": 5475,
      "eat": 5476,
      "ego": 5477,
      "fist": 5478,
      "foul": 5479,
      "folds": 5480,
      "gin": 5481,
      "glo": 5482,
      "gam": 5483,
      "hers": 5484,
      "husband": 5485,
      "iation": 5486,
      "ians": 5487,
      "lust": 5488,
      "lime": 5489,
      "mut": 5490,
      "mitt": 5491,
      "mless": 5492,
      "ni": 5493,
      "nur": 5494,
      "niche": 5495,
      "narc": 5496,
      "oth": 5497,
      "pion": 5498,
      "pable": 5499,
      "park": 5500,
      "pants": 5501,
      "rill": 5502,
      "rity": 5503,
      "rated": 5504,
      "rings": 5505,
      "sou": 5506,
      "sand": 5507,
      "sly": 5508,
      "sma": 5509,
      "sla": 5510,
      "slack": 5511,
      "tel": 5512,
      "tends": 5513,
      "treme": 5514,
      "torn": 5515,
      "uit": 5516,
      "uart": 5517,
      "uces": 5518,
      "ufact": 5519,
      "urable": 5520,
      "vit": 5521,
      "vall": 5522,
      "vast": 5523,
      "wis": 5524,
      "witted": 5525,
      "zel": 5526,
      "thman": 5527,
      "thick": 5528,
      "threat": 5529,
      "thony": 5530,
      "inse": 5531,
      "inject": 5532,
      "infant": 5533,
      "inoffensive": 5534,
      "incomprehensible": 5535,
      "anic": 5536,
      "anom": 5537,
      "anthro": 5538,
      "rev": 5539,
      "rever": 5540,
      "reaction": 5541,
      "reject": 5542,
      "return": 5543,
      "enh": 5544,
      "eningly": 5545,
      "atus": 5546,
      "thematic": 5547,
      "isse": 5548,
      "iscent": 5549,
      "esse": 5550,
      "orter": 5551,
      "order": 5552,
      "ita": 5553,
      "itz": 5554,
      "iter": 5555,
      "alia": 5556,
      "altogether": 5557,
      "alleg": 5558,
      "arm": 5559,
      "arrive": 5560,
      "ston": 5561,
      "stim": 5562,
      "stran": 5563,
      "stily": 5564,
      "edgy": 5565,
      "ication": 5566,
      "assem": 5567,
      "oman": 5568,
      "chest": 5569,
      "chore": 5570,
      "chord": 5571,
      "chio": 5572,
      "chases": 5573,
      "model": 5574,
      "elle": 5575,
      "elab": 5576,
      "ellow": 5577,
      "ioned": 5578,
      "hey": 5579,
      "heim": 5580,
      "hears": 5581,
      "sea": 5582,
      "secon": 5583,
      "semi": 5584,
      "betra": 5585,
      "bears": 5586,
      "bearing": 5587,
      "unit": 5588,
      "unexpect": 5589,
      "uncertain": 5590,
      "unusually": 5591,
      "unbelievable": 5592,
      "uncomfortable": 5593,
      "mare": 5594,
      "mactic": 5595,
      "rad": 5596,
      "rah": 5597,
      "radi": 5598,
      "raises": 5599,
      "ghan": 5600,
      "ghost": 5601,
      "ularly": 5602,
      "defe": 5603,
      "demented": 5604,
      "los": 5605,
      "loop": 5606,
      "imit": 5607,
      "immer": 5608,
      "impec": 5609,
      "iminal": 5610,
      "imitation": 5611,
      "abit": 5612,
      "abandon": 5613,
      "forces": 5614,
      "verve": 5615,
      "verbal": 5616,
      "lized": 5617,
      "noise": 5618,
      "nown": 5619,
      "sus": 5620,
      "kets": 5621,
      "ado": 5622,
      "adding": 5623,
      "riot": 5624,
      "riously": 5625,
      "rival": 5626,
      "olves": 5627,
      "outstanding": 5628,
      "irk": 5629,
      "ironic": 5630,
      "law": 5631,
      "laid": 5632,
      "button": 5633,
      "shall": 5634,
      "shines": 5635,
      "shape": 5636,
      "shrewd": 5637,
      "tered": 5638,
      "exposition": 5639,
      "neigh": 5640,
      "dope": 5641,
      "doses": 5642,
      "oding": 5643,
      "odge": 5644,
      "peek": 5645,
      "umbles": 5646,
      "conco": 5647,
      "condit": 5648,
      "conserv": 5649,
      "ckheim": 5650,
      "scattered": 5651,
      "emes": 5652,
      "artistic": 5653,
      "fulfilling": 5654,
      "hastily": 5655,
      "qui": 5656,
      "manufact": 5657,
      "idence": 5658,
      "prep": 5659,
      "precise": 5660,
      "prefer": 5661,
      "prospect": 5662,
      "proportions": 5663,
      "ustroph": 5664,
      "wear": 5665,
      "weep": 5666,
      "wearing": 5667,
      "timeless": 5668,
      "elled": 5669,
      "span": 5670,
      "spare": 5671,
      "spont": 5672,
      "somebody": 5673,
      "asting": 5674,
      "ague": 5675,
      "ints": 5676,
      "intima": 5677,
      "oping": 5678,
      "opaque": 5679,
      "uplifting": 5680,
      "endure": 5681,
      "bot": 5682,
      "boat": 5683,
      "rude": 5684,
      "ruci": 5685,
      "accent": 5686,
      "directing": 5687,
      "Anne": 5688,
      "Antw": 5689,
      "Anton": 5690,
      "Animal": 5691,
      "Analyze": 5692,
      "Anthony": 5693,
      "meat": 5694,
      "anybody": 5695,
      "clu": 5696,
      "clash": 5697,
      "plex": 5698,
      "plete": 5699,
      "creen": 5700,
      "earlier": 5701,
      "matters": 5702,
      "insist": 5703,
      "justify": 5704,
      "overlong": 5705,
      "drawing": 5706,
      "dramatically": 5707,
      "draws": 5708,
      "evening": 5709,
      "proud": 5710,
      "princ": 5711,
      "flam": 5712,
      "flour": 5713,
      "Whatever": 5714,
      "page": 5715,
      "performed": 5716,
      "obsc": 5717,
      "talky": 5718,
      "cohes": 5719,
      "discer": 5720,
      "disquiet": 5721,
      "dismissed": 5722,
      "disguise": 5723,
      "disgust": 5724,
      "disjointed": 5725,
      "iza": 5726,
      "ization": 5727,
      "ranks": 5728,
      "subvers": 5729,
      "subplots": 5730,
      "sublime": 5731,
      "screening": 5732,
      "international": 5733,
      "intermitt": 5734,
      "ashedly": 5735,
      "uddled": 5736,
      "impul": 5737,
      "imperson": 5738,
      "Changing": 5739,
      "Chateau": 5740,
      "seemingly": 5741,
      "blat": 5742,
      "blame": 5743,
      "blue": 5744,
      "maged": 5745,
      "tried": 5746,
      "grab": 5747,
      "seek": 5748,
      "partners": 5749,
      "syst": 5750,
      "undermin": 5751,
      "grasp": 5752,
      "inks": 5753,
      "center": 5754,
      "resour": 5755,
      "jeal": 5756,
      "lackluster": 5757,
      "downbeat": 5758,
      "longing": 5759,
      "Strange": 5760,
      "Stuart": 5761,
      "hook": 5762,
      "atters": 5763,
      "occup": 5764,
      "ocrity": 5765,
      "occhio": 5766,
      "ignant": 5767,
      "humorless": 5768,
      "rowdy": 5769,
      "newcom": 5770,
      "thrillers": 5771,
      "below": 5772,
      "clean": 5773,
      "scenery": 5774,
      "stylistic": 5775,
      "stylized": 5776,
      "misery": 5777,
      "kinda": 5778,
      "porn": 5779,
      "tedly": 5780,
      "ggio": 5781,
      "plus": 5782,
      "showing": 5783,
      "showcase": 5784,
      "pretensions": 5785,
      "cynic": 5786,
      "monot": 5787,
      "gia": 5788,
      "Bute": 5789,
      "craw": 5790,
      "craft": 5791,
      "cratic": 5792,
      "finest": 5793,
      "handled": 5794,
      "glum": 5795,
      "glass": 5796,
      "buried": 5797,
      "excruci": 5798,
      "specif": 5799,
      "Deuces": 5800,
      "wanting": 5801,
      "sincer": 5802,
      "generous": 5803,
      "generation": 5804,
      "generate": 5805,
      "generated": 5806,
      "generates": 5807,
      "Altern": 5808,
      "putting": 5809,
      "Beast": 5810,
      "twenty": 5811,
      "Form": 5812,
      "marginal": 5813,
      "videos": 5814,
      "experienced": 5815,
      "elev": 5816,
      "elect": 5817,
      "hyper": 5818,
      "ibal": 5819,
      "ibilities": 5820,
      "saying": 5821,
      "closer": 5822,
      "clothes": 5823,
      "morning": 5824,
      "touched": 5825,
      "distin": 5826,
      "strained": 5827,
      "portrays": 5828,
      "predictably": 5829,
      "slugg": 5830,
      "simplic": 5831,
      "appalling": 5832,
      "familial": 5833,
      "families": 5834,
      "allowing": 5835,
      "lerball": 5836,
      "corner": 5837,
      "factory": 5838,
      "supernatural": 5839,
      "sweetness": 5840,
      "terribly": 5841,
      "satisfied": 5842,
      "Joel": 5843,
      "Reggio": 5844,
      "simultaneously": 5845,
      "sadly": 5846,
      "sensical": 5847,
      "devices": 5848,
      "impressed": 5849,
      "impressively": 5850,
      "popul": 5851,
      "Rohmer": 5852,
      "charmless": 5853,
      "Dogs": 5854,
      "fancy": 5855,
      "hoped": 5856,
      "vali": 5857,
      "wake": 5858,
      "refusal": 5859,
      "Attal": 5860,
      "Conf": 5861,
      "Conduct": 5862,
      "brothers": 5863,
      "brooding": 5864,
      "topic": 5865,
      "Weight": 5866,
      "richer": 5867,
      "richly": 5868,
      "solidly": 5869,
      "Dahmer": 5870,
      "Manages": 5871,
      "denial": 5872,
      "potent": 5873,
      "ification": 5874,
      "politically": 5875,
      "nonsensical": 5876,
      "suffer": 5877,
      "folk": 5878,
      "adventurous": 5879,
      "scient": 5880,
      "heroes": 5881,
      "heroine": 5882,
      "honesty": 5883,
      "destination": 5884,
      "ronic": 5885,
      "pathology": 5886,
      "structured": 5887,
      "crucial": 5888,
      "daily": 5889,
      "treats": 5890,
      "fragment": 5891,
      "contribut": 5892,
      "affected": 5893,
      "balls": 5894,
      "understands": 5895,
      "strikes": 5896,
      "exceptionally": 5897,
      "Sometimes": 5898,
      "garbage": 5899,
      "Comes": 5900,
      "inspire": 5901,
      "Stein": 5902,
      "Steve": 5903,
      "intentioned": 5904,
      "straightforward": 5905,
      "101": 5906,
      "aimless": 5907,
      "harsh": 5908,
      "postor": 5909,
      "positive": 5910,
      "disappointment": 5911,
      "Extreme": 5912,
      "Walk": 5913,
      "cali": 5914,
      "named": 5915,
      "parent": 5916,
      "lifts": 5917,
      "Sandra": 5918,
      "double": 5919,
      "driven": 5920,
      "install": 5921,
      "stoppers": 5922,
      "weirdness": 5923,
      "Solaris": 5924,
      "Soldiers": 5925,
      "covers": 5926,
      "critics": 5927,
      "critique": 5928,
      "pays": 5929,
      "personalities": 5930,
      "McGra": 5931,
      "Project": 5932,
      "labored": 5933,
      "nonetheless": 5934,
      "invention": 5935,
      "inspirational": 5936,
      "legend": 5937,
      "chills": 5938,
      "roads": 5939,
      "expressive": 5940,
      "substantial": 5941,
      "follows": 5942,
      "Poignant": 5943,
      "squanders": 5944,
      "comfortably": 5945,
      "existence": 5946,
      "concern": 5947,
      "pulling": 5948,
      "assuming": 5949,
      "severe": 5950,
      "openness": 5951,
      "contempl": 5952,
      "Freeman": 5953,
      "variety": 5954,
      "mediocrity": 5955,
      "Harry": 5956,
      "murky": 5957,
      "snap": 5958,
      "sleeve": 5959,
      "rapid": 5960,
      "sparkling": 5961,
      "earnestness": 5962,
      "LaBute": 5963,
      "Pax": 5964,
      "killer": 5965,
      "immensely": 5966,
      "improvised": 5967,
      "observation": 5968,
      "observant": 5969,
      "graceful": 5970,
      "Greene": 5971,
      "claustroph": 5972,
      "relief": 5973,
      "isterhood": 5974,
      "opportun": 5975,
      "resonance": 5976,
      "meaningful": 5977,
      "celebration": 5978,
      "busy": 5979,
      "speaking": 5980,
      "complications": 5981,
      "happened": 5982,
      "philosophy": 5983,
      "Cannes": 5984,
      "Half": 5985,
      "Morvern": 5986,
      "biopic": 5987,
      "festival": 5988,
      "sorry": 5989,
      "charismatic": 5990,
      "paints": 5991,
      "Wilco": 5992,
      "salv": 5993,
      "enterprise": 5994,
      "machine": 5995,
      "guessing": 5996,
      "builds": 5997,
      "building": 5998,
      "consciousness": 5999,
      "Impostor": 6000,
      "Serving": 6001,
      "textbook": 6002,
      "incisive": 6003,
      "alternately": 6004,
      "predecessors": 6005,
      "demonstrates": 6006,
      "Adventures": 6007,
      "Highly": 6008,
      "Perhaps": 6009,
      "Russell": 6010,
      "biographical": 6011,
      "sinks": 6012,
      "shaped": 6013,
      "shapeless": 6014,
      "acceptable": 6015,
      "muddled": 6016,
      "brutally": 6017,
      "Holm": 6018,
      "Holof": 6019,
      "Juliet": 6020,
      "Smart": 6021,
      "Sorority": 6022,
      "Sarandon": 6023,
      "climactic": 6024,
      "practically": 6025,
      "alienation": 6026,
      "immediate": 6027,
      "accents": 6028,
      "insulting": 6029,
      "surrounding": 6030,
      "transcends": 6031,
      "favorite": 6032,
      "Break": 6033,
      "Goldmember": 6034,
      "Lanes": 6035,
      "Neil": 6036,
      "Terri": 6037,
      "catches": 6038,
      "frightening": 6039,
      "giddy": 6040,
      "ponderous": 6041,
      "sensual": 6042,
      "vigor": 6043,
      "shamelessly": 6044,
      "screaming": 6045,
      "astonishing": 6046,
      "astonishingly": 6047,
      "measured": 6048,
      "motivated": 6049,
      "similarly": 6050,
      "embarrassment": 6051,
      "Duke": 6052,
      "Duvall": 6053,
      "Fails": 6054,
      "Irish": 6055,
      "wonders": 6056,
      "chaotic": 6057,
      "locations": 6058,
      "shadows": 6059,
      "strictly": 6060,
      "adequate": 6061,
      "adequately": 6062,
      "victims": 6063,
      "Korea": 6064,
      "Taylor": 6065,
      "fatal": 6066,
      "fabric": 6067,
      "glossy": 6068,
      "reminder": 6069,
      "ambiguous": 6070,
      "technology": 6071,
      "Bruckheim": 6072,
      "Clooney": 6073,
      "Clause": 6074,
      "Funny": 6075,
      "Human": 6076,
      "Judd": 6077,
      "Payne": 6078,
      "Return": 6079,
      "silver": 6080,
      "saga": 6081,
      "inconsequential": 6082,
      "exceedingly": 6083,
      "estyle": 6084,
      "employ": 6085,
      "providing": 6086,
      "aughter": 6087,
      "authority": 6088,
      "insanely": 6089,
      "buffs": 6090,
      "melancho": 6091,
      "bursts": 6092,
      "Blood": 6093,
      "Crudup": 6094,
      "Eastwood": 6095,
      "Music": 6096,
      "Middle": 6097,
      "Pretty": 6098,
      "Simone": 6099,
      "inevitable": 6100,
      "rehash": 6101,
      "reputation": 6102,
      "unabashedly": 6103,
      "rambling": 6104,
      "sudden": 6105,
      "irresistible": 6106,
      "sobering": 6107,
      "mechanical": 6108,
      "minimalist": 6109,
      "satirical": 6110,
      "redundant": 6111,
      "flavor": 6112,
      "Seems": 6113,
      "pedestrian": 6114,
      "episodes": 6115,
      "substitute": 6116,
      "Glass": 6117,
      "German": 6118,
      "Lady": 6119,
      "Rollerball": 6120,
      "Windtalkers": 6121,
      "wrapped": 6122,
      "inhabit": 6123,
      "stilted": 6124,
      "unnerving": 6125,
      "exaggerated": 6126,
      "convenient": 6127,
      "idelity": 6128,
      "preposterous": 6129,
      "coherence": 6130,
      "disposable": 6131,
      "hypnotic": 6132,
      "Bogdanovich": 6133,
      "Argentine": 6134,
      "contradictory": 6135,
      "tremendous": 6136,
      "Academy": 6137,
      "Bourne": 6138,
      "Clockstoppers": 6139,
      "Dowell": 6140,
      "Diesel": 6141,
      "Dawson": 6142,
      "Europe": 6143,
      "Equilibrium": 6144,
      "Frontal": 6145,
      "Griff": 6146,
      "Jessica": 6147,
      "Lewis": 6148,
      "Pinocchio": 6149,
      "Pacino": 6150,
      "Paradiso": 6151,
      "Plympton": 6152,
      "Rouge": 6153,
      "Sheridan": 6154,
      "Toback": 6155,
      "Tarantino": 6156,
      "Wilson": 6157,
      "Wendigo": 6158,
      "herself": 6159,
      "vitality": 6160,
      "allegory": 6161,
      "stimul": 6162,
      "elaborate": 6163,
      "seconds": 6164,
      "unexpectedly": 6165,
      "impeccable": 6166,
      "neighbor": 6167,
      "conservative": 6168,
      "manufactured": 6169,
      "spontane": 6170,
      "intimacy": 6171,
      "Antwone": 6172,
      "princip": 6173,
      "subversive": 6174,
      "intermittently": 6175,
      "sincerity": 6176,
      "sluggish": 6177,
      "simplicity": 6178,
      "McGrath": 6179,
      "Bruckheimer": 6180,
      "16": 6181,
      "40": 6182,
      "60s": 6183,
      "88": 6184,
      "95": 6185,
      "Ah": 6186,
      "Au": 6187,
      "Ali": 6188,
      "Age": 6189,
      "Ash": 6190,
      "Away": 6191,
      "Amy": 6192,
      "Award": 6193,
      "Amar": 6194,
      "Aute": 6195,
      "Alex": 6196,
      "Bi": 6197,
      "Bill": 6198,
      "Bef": 6199,
      "Bible": 6200,
      "Body": 6201,
      "Brian": 6202,
      "CG": 6203,
      "Cl": 6204,
      "Cal": 6205,
      "Cent": 6206,
      "Cur": 6207,
      "Cap": 6208,
      "Cold": 6209,
      "Catch": 6210,
      "Certain": 6211,
      "Cran": 6212,
      "Cage": 6213,
      "Cath": 6214,
      "Cinema": 6215,
      "Clet": 6216,
      "Clu": 6217,
      "Capt": 6218,
      "Cinder": 6219,
      "Der": 6220,
      "Dark": 6221,
      "Def": 6222,
      "Div": 6223,
      "Dian": 6224,
      "Drum": 6225,
      "Ey": 6226,
      "Eis": 6227,
      "Eli": 6228,
      "Each": 6229,
      "Eric": 6230,
      "Ecks": 6231,
      "Eleg": 6232,
      "Emp": 6233,
      "Earth": 6234,
      "Fo": 6235,
      "Fon": 6236,
      "Fess": 6237,
      "Fear": 6238,
      "Fans": 6239,
      "Focus": 6240,
      "Gond": 6241,
      "Gib": 6242,
      "Garc": 6243,
      "Gets": 6244,
      "Grey": 6245,
      "Ghetto": 6246,
      "Hey": 6247,
      "Hane": 6248,
      "Happ": 6249,
      "House": 6250,
      "Hanks": 6251,
      "IB": 6252,
      "Isl": 6253,
      "Ju": 6254,
      "Jord": 6255,
      "Jagger": 6256,
      "Jenn": 6257,
      "Kin": 6258,
      "Kim": 6259,
      "Kath": 6260,
      "Kwan": 6261,
      "Kah": 6262,
      "Killer": 6263,
      "Li": 6264,
      "Lou": 6265,
      "Lol": 6266,
      "Live": 6267,
      "Let": 6268,
      "Lilo": 6269,
      "Med": 6270,
      "Mend": 6271,
      "Mile": 6272,
      "Mark": 6273,
      "Malk": 6274,
      "MIB": 6275,
      "Nel": 6276,
      "Nature": 6277,
      "Numb": 6278,
      "Neither": 6279,
      "OO": 6280,
      "Oz": 6281,
      "Oed": 6282,
      "Ph": 6283,
      "Pat": 6284,
      "Put": 6285,
      "Part": 6286,
      "Prom": 6287,
      "Past": 6288,
      "Pet": 6289,
      "Pau": 6290,
      "Pry": 6291,
      "Psy": 6292,
      "Pred": 6293,
      "Plan": 6294,
      "Praise": 6295,
      "Ring": 6296,
      "Ral": 6297,
      "Rif": 6298,
      "Rep": 6299,
      "Rose": 6300,
      "Ros": 6301,
      "Rub": 6302,
      "Sk": 6303,
      "Sam": 6304,
      "Say": 6305,
      "Sta": 6306,
      "Sur": 6307,
      "Sop": 6308,
      "Scar": 6309,
      "Shad": 6310,
      "Scor": 6311,
      "Sisterhood": 6312,
      "Ty": 6313,
      "Tur": 6314,
      "Tak": 6315,
      "Tries": 6316,
      "Takes": 6317,
      "Trying": 6318,
      "Trek": 6319,
      "Ven": 6320,
      "Wa": 6321,
      "Was": 6322,
      "Way": 6323,
      "Were": 6324,
      "Would": 6325,
      "Witty": 6326,
      "Woman": 6327,
      "Yid": 6328,
      "Ze": 6329,
      "ae": 6330,
      "aid": 6331,
      "ains": 6332,
      "bon": 6333,
      "boun": 6334,
      "bour": 6335,
      "buster": 6336,
      "baked": 6337,
      "baby": 6338,
      "btedly": 6339,
      "cab": 6340,
      "cener": 6341,
      "catching": 6342,
      "ccid": 6343,
      "cobbled": 6344,
      "dil": 6345,
      "dent": 6346,
      "dol": 6347,
      "dust": 6348,
      "dling": 6349,
      "dash": 6350,
      "dime": 6351,
      "daring": 6352,
      "ech": 6353,
      "eem": 6354,
      "efully": 6355,
      "eky": 6356,
      "effic": 6357,
      "fli": 6358,
      "fits": 6359,
      "fice": 6360,
      "fond": 6361,
      "fitting": 6362,
      "focused": 6363,
      "gie": 6364,
      "gile": 6365,
      "green": 6366,
      "gimm": 6367,
      "gigg": 6368,
      "hill": 6369,
      "hust": 6370,
      "hok": 6371,
      "hang": 6372,
      "hund": 6373,
      "iri": 6374,
      "ius": 6375,
      "idow": 6376,
      "jam": 6377,
      "jell": 6378,
      "jaw": 6379,
      "jarring": 6380,
      "kick": 6381,
      "kicks": 6382,
      "kicking": 6383,
      "lers": 6384,
      "lark": 6385,
      "lull": 6386,
      "lined": 6387,
      "mic": 6388,
      "mish": 6389,
      "mile": 6390,
      "mund": 6391,
      "nin": 6392,
      "nut": 6393,
      "nour": 6394,
      "nie": 6395,
      "nier": 6396,
      "naught": 6397,
      "ncratic": 6398,
      "oh": 6399,
      "ole": 6400,
      "och": 6401,
      "odo": 6402,
      "ote": 6403,
      "ogy": 6404,
      "pid": 6405,
      "plight": 6406,
      "rer": 6407,
      "rion": 6408,
      "rust": 6409,
      "rase": 6410,
      "sli": 6411,
      "sol": 6412,
      "swo": 6413,
      "sions": 6414,
      "sword": 6415,
      "sided": 6416,
      "solutions": 6417,
      "soft": 6418,
      "sisters": 6419,
      "tat": 6420,
      "tor": 6421,
      "tem": 6422,
      "tart": 6423,
      "treasure": 6424,
      "uh": 6425,
      "ule": 6426,
      "uel": 6427,
      "uri": 6428,
      "ush": 6429,
      "uber": 6430,
      "uously": 6431,
      "vac": 6432,
      "vating": 6433,
      "vain": 6434,
      "wat": 6435,
      "won": 6436,
      "whe": 6437,
      "wrote": 6438,
      "yce": 6439,
      "yaz": 6440,
      "yawn": 6441,
      "芒te": 6442,
      "ths": 6443,
      "thy": 6444,
      "thodo": 6445,
      "iner": 6446,
      "init": 6447,
      "inent": 6448,
      "infect": 6449,
      "inian": 6450,
      "initely": 6451,
      "inquis": 6452,
      "incompetent": 6453,
      "inconsistent": 6454,
      "incorpor": 6455,
      "anch": 6456,
      "anion": 6457,
      "anci": 6458,
      "anarch": 6459,
      "erfig": 6460,
      "erpuff": 6461,
      "rely": 6462,
      "reel": 6463,
      "rese": 6464,
      "rela": 6465,
      "resc": 6466,
      "revision": 6467,
      "ender": 6468,
      "enlight": 6469,
      "envelop": 6470,
      "enstein": 6471,
      "atta": 6472,
      "atroc": 6473,
      "thed": 6474,
      "thet": 6475,
      "thew": 6476,
      "theon": 6477,
      "theory": 6478,
      "ismo": 6479,
      "isolation": 6480,
      "onlight": 6481,
      "orial": 6482,
      "ites": 6483,
      "itage": 6484,
      "itivity": 6485,
      "oubtedly": 6486,
      "anda": 6487,
      "allo": 6488,
      "alike": 6489,
      "alert": 6490,
      "aluable": 6491,
      "album": 6492,
      "arat": 6493,
      "arian": 6494,
      "arbit": 6495,
      "argue": 6496,
      "stic": 6497,
      "station": 6498,
      "stur": 6499,
      "state": 6500,
      "stag": 6501,
      "stately": 6502,
      "stner": 6503,
      "static": 6504,
      "tom": 6505,
      "toil": 6506,
      "took": 6507,
      "edy": 6508,
      "edit": 6509,
      "edom": 6510,
      "edges": 6511,
      "icing": 6512,
      "icion": 6513,
      "asing": 6514,
      "assum": 6515,
      "associ": 6516,
      "leap": 6517,
      "leep": 6518,
      "leash": 6519,
      "chur": 6520,
      "champ": 6521,
      "chief": 6522,
      "moved": 6523,
      "moody": 6524,
      "elow": 6525,
      "entry": 6526,
      "heaven": 6527,
      "seal": 6528,
      "section": 6529,
      "vein": 6530,
      "utes": 6531,
      "beth": 6532,
      "beck": 6533,
      "beach": 6534,
      "unbl": 6535,
      "unky": 6536,
      "uninteresting": 6537,
      "uncomm": 6538,
      "uneasy": 6539,
      "unsentimental": 6540,
      "unconventional": 6541,
      "unrelent": 6542,
      "uncomfortably": 6543,
      "vies": 6544,
      "rac": 6545,
      "rain": 6546,
      "rably": 6547,
      "ules": 6548,
      "ultra": 6549,
      "uloid": 6550,
      "degra": 6551,
      "deals": 6552,
      "decade": 6553,
      "lob": 6554,
      "lod": 6555,
      "lose": 6556,
      "lovers": 6557,
      "local": 6558,
      "abo": 6559,
      "abby": 6560,
      "abstra": 6561,
      "abuse": 6562,
      "forgiven": 6563,
      "verty": 6564,
      "versus": 6565,
      "cean": 6566,
      "ceful": 6567,
      "liff": 6568,
      "rotechn": 6569,
      "roots": 6570,
      "compe": 6571,
      "compo": 6572,
      "comics": 6573,
      "composition": 6574,
      "whod": 6575,
      "whale": 6576,
      "wholes": 6577,
      "whimsy": 6578,
      "nobody": 6579,
      "supre": 6580,
      "Their": 6581,
      "keen": 6582,
      "ador": 6583,
      "aded": 6584,
      "ados": 6585,
      "addict": 6586,
      "withstanding": 6587,
      "rig": 6588,
      "ripe": 6589,
      "olf": 6590,
      "olate": 6591,
      "amic": 6592,
      "amuse": 6593,
      "erspoon": 6594,
      "irations": 6595,
      "irteen": 6596,
      "laz": 6597,
      "actic": 6598,
      "actions": 6599,
      "actual": 6600,
      "diverse": 6601,
      "shell": 6602,
      "shrill": 6603,
      "tering": 6604,
      "terior": 6605,
      "fee": 6606,
      "fet": 6607,
      "feet": 6608,
      "fewer": 6609,
      "exha": 6610,
      "exuber": 6611,
      "netic": 6612,
      "dot": 6613,
      "dose": 6614,
      "doze": 6615,
      "dozen": 6616,
      "pete": 6617,
      "area": 6618,
      "esteem": 6619,
      "pool": 6620,
      "pokes": 6621,
      "poverty": 6622,
      "conve": 6623,
      "consequences": 6624,
      "contains": 6625,
      "condesc": 6626,
      "concentr": 6627,
      "confront": 6628,
      "alls": 6629,
      "alluring": 6630,
      "scap": 6631,
      "ayas": 6632,
      "taut": 6633,
      "tape": 6634,
      "taine": 6635,
      "soggy": 6636,
      "solem": 6637,
      "arty": 6638,
      "arted": 6639,
      "illing": 6640,
      "urally": 6641,
      "romances": 6642,
      "ante": 6643,
      "useless": 6644,
      "managed": 6645,
      "gore": 6646,
      "goose": 6647,
      "govern": 6648,
      "idering": 6649,
      "preced": 6650,
      "apl": 6651,
      "prote": 6652,
      "proced": 6653,
      "notable": 6654,
      "wet": 6655,
      "timid": 6656,
      "charge": 6657,
      "thank": 6658,
      "sport": 6659,
      "agent": 6660,
      "evol": 6661,
      "dering": 6662,
      "optim": 6663,
      "opens": 6664,
      "oppress": 6665,
      "upd": 6666,
      "upbeat": 6667,
      "enden": 6668,
      "etic": 6669,
      "etrating": 6670,
      "iff": 6671,
      "ifty": 6672,
      "iffle": 6673,
      "ittedly": 6674,
      "storylines": 6675,
      "boys": 6676,
      "bogs": 6677,
      "tei": 6678,
      "tepid": 6679,
      "ptuous": 6680,
      "ruff": 6681,
      "waydowntown": 6682,
      "aces": 6683,
      "ourselves": 6684,
      "plaus": 6685,
      "placing": 6686,
      "directly": 6687,
      "directions": 6688,
      "bleak": 6689,
      "lessons": 6690,
      "train": 6691,
      "tract": 6692,
      "mely": 6693,
      "meant": 6694,
      "anyway": 6695,
      "clim": 6696,
      "clam": 6697,
      "clue": 6698,
      "intoler": 6699,
      "Then": 6700,
      "Thanks": 6701,
      "Thorn": 6702,
      "comedian": 6703,
      "gues": 6704,
      "offend": 6705,
      "creature": 6706,
      "iever": 6707,
      "inson": 6708,
      "insip": 6709,
      "tooth": 6710,
      "pher": 6711,
      "phone": 6712,
      "phones": 6713,
      "phony": 6714,
      "lows": 6715,
      "lower": 6716,
      "prisingly": 6717,
      "fathers": 6718,
      "flimsy": 6719,
      "assa": 6720,
      "feelings": 6721,
      "surance": 6722,
      "ensed": 6723,
      "coli": 6724,
      "seren": 6725,
      "sermon": 6726,
      "distasteful": 6727,
      "desired": 6728,
      "izard": 6729,
      "achron": 6730,
      "gency": 6731,
      "lings": 6732,
      "player": 6733,
      "subtitles": 6734,
      "companion": 6735,
      "aki": 6736,
      "akin": 6737,
      "ashvil": 6738,
      "berry": 6739,
      "everyday": 6740,
      "llen": 6741,
      "imps": 6742,
      "veler": 6743,
      "Chick": 6744,
      "Chelse": 6745,
      "Ch芒te": 6746,
      "seeming": 6747,
      "dude": 6748,
      "duck": 6749,
      "blues": 6750,
      "blank": 6751,
      "magical": 6752,
      "trived": 6753,
      "triangle": 6754,
      "Insom": 6755,
      "grac": 6756,
      "aficion": 6757,
      "partly": 6758,
      "underbelly": 6759,
      "grind": 6760,
      "grating": 6761,
      "themed": 6762,
      "freak": 6763,
      "freedom": 6764,
      "angled": 6765,
      "plotline": 6766,
      "cino": 6767,
      "casts": 6768,
      "cumst": 6769,
      "awak": 6770,
      "awfully": 6771,
      "daytime": 6772,
      "Still": 6773,
      "Stitch": 6774,
      "hole": 6775,
      "hokey": 6776,
      "ocity": 6777,
      "occur": 6778,
      "firing": 6779,
      "warzen": 6780,
      "lighting": 6781,
      "news": 6782,
      "whenever": 6783,
      "rightly": 6784,
      "thrilling": 6785,
      "belief": 6786,
      "scripts": 6787,
      "choice": 6788,
      "choose": 6789,
      "laughed": 6790,
      "venile": 6791,
      "misfire": 6792,
      "miscalcul": 6793,
      "misanthro": 6794,
      "misogy": 6795,
      "pleasantly": 6796,
      "pleasurable": 6797,
      "backs": 6798,
      "backstage": 6799,
      "steal": 6800,
      "steam": 6801,
      "takingly": 6802,
      "wooden": 6803,
      "documentaries": 6804,
      "tediously": 6805,
      "histrion": 6806,
      "collapses": 6807,
      "enjoyment": 6808,
      "guez": 6809,
      "showcases": 6810,
      "Asian": 6811,
      "extrem": 6812,
      "medical": 6813,
      "media": 6814,
      "carn": 6815,
      "caring": 6816,
      "caric": 6817,
      "monsters": 6818,
      "cheer": 6819,
      "cheese": 6820,
      "cram": 6821,
      "criminal": 6822,
      "ease": 6823,
      "farc": 6824,
      "handful": 6825,
      "glas": 6826,
      "glaring": 6827,
      "bug": 6828,
      "buck": 6829,
      "highest": 6830,
      "highlight": 6831,
      "formal": 6832,
      "excels": 6833,
      "specific": 6834,
      "Dean": 6835,
      "Deep": 6836,
      "DeNiro": 6837,
      "flaccid": 6838,
      "rung": 6839,
      "sinister": 6840,
      "effectively": 6841,
      "produce": 6842,
      "Noyce": 6843,
      "Behind": 6844,
      "memories": 6845,
      "unders": 6846,
      "undone": 6847,
      "undoubtedly": 6848,
      "Spike": 6849,
      "marine": 6850,
      "marriage": 6851,
      "pola": 6852,
      "polished": 6853,
      "tricks": 6854,
      "anime": 6855,
      "animat": 6856,
      "animal": 6857,
      "animals": 6858,
      "Mothman": 6859,
      "Moonlight": 6860,
      "Unlike": 6861,
      "Unless": 6862,
      "Unfolds": 6863,
      "Witherspoon": 6864,
      "passing": 6865,
      "hypo": 6866,
      "consolation": 6867,
      "considering": 6868,
      "classics": 6869,
      "morally": 6870,
      "parade": 6871,
      "distant": 6872,
      "witless": 6873,
      "sumptuous": 6874,
      "facet": 6875,
      "darker": 6876,
      "darkness": 6877,
      "lasting": 6878,
      "dullest": 6879,
      "invaluable": 6880,
      "193": 6881,
      "19th": 6882,
      "inescapable": 6883,
      "bracing": 6884,
      "midnight": 6885,
      "sedu": 6886,
      "cleverness": 6887,
      "psych": 6888,
      "safe": 6889,
      "saved": 6890,
      "Brothers": 6891,
      "olute": 6892,
      "fallen": 6893,
      "capturing": 6894,
      "Jolie": 6895,
      "Really": 6896,
      "explore": 6897,
      "exploit": 6898,
      "explores": 6899,
      "explosions": 6900,
      "honor": 6901,
      "tones": 6902,
      "happiness": 6903,
      "happening": 6904,
      "bank": 6905,
      "banter": 6906,
      "senses": 6907,
      "sensibilities": 6908,
      "hilarity": 6909,
      "leading": 6910,
      "Schn": 6911,
      "Scherfig": 6912,
      "Schwarzen": 6913,
      "depra": 6914,
      "effortlessly": 6915,
      "puzzling": 6916,
      "puzzle": 6917,
      "valuable": 6918,
      "wave": 6919,
      "waves": 6920,
      "refuses": 6921,
      "reflection": 6922,
      "Anderson": 6923,
      "profic": 6924,
      "Conversations": 6925,
      "Contrived": 6926,
      "Should": 6927,
      "Enough": 6928,
      "basis": 6929,
      "differences": 6930,
      "Damage": 6931,
      "Robin": 6932,
      "Robinson": 6933,
      "books": 6934,
      "Heart": 6935,
      "suffoc": 6936,
      "absolute": 6937,
      "subtly": 6938,
      "Abandon": 6939,
      "destro": 6940,
      "destined": 6941,
      "norm": 6942,
      "examines": 6943,
      "pathos": 6944,
      "Ararat": 6945,
      "Barney": 6946,
      "damage": 6947,
      "damaged": 6948,
      "Marshall": 6949,
      "bloody": 6950,
      "ekerk": 6951,
      "fragile": 6952,
      "slightest": 6953,
      "contrivan": 6954,
      "clich茅d": 6955,
      "breakthrough": 6956,
      "droll": 6957,
      "landscape": 6958,
      "pursu": 6959,
      "signpost": 6960,
      "begin": 6961,
      "Everyone": 6962,
      "Tosca": 6963,
      "griev": 6964,
      "regret": 6965,
      "definitive": 6966,
      "definition": 6967,
      "Work": 6968,
      "Works": 6969,
      "confused": 6970,
      "confidence": 6971,
      "mysterious": 6972,
      "Comb": 6973,
      "onym": 6974,
      "address": 6975,
      "Carmen": 6976,
      "Steers": 6977,
      "Stephen": 6978,
      "dumbed": 6979,
      "huang": 6980,
      "harder": 6981,
      "harmless": 6982,
      "listen": 6983,
      "ungry": 6984,
      "postcard": 6985,
      "positively": 6986,
      "eventful": 6987,
      "eventual": 6988,
      "boyant": 6989,
      "Walsh": 6990,
      "Walter": 6991,
      "naturally": 6992,
      "names": 6993,
      "lifestyle": 6994,
      "combines": 6995,
      "drivel": 6996,
      "panor": 6997,
      "panella": 6998,
      "panache": 6999,
      "pantheon": 7000,
      "patient": 7001,
      "vanity": 7002,
      "ville": 7003,
      "wallet": 7004,
      "stops": 7005,
      "weirdly": 7006,
      "Cox": 7007,
      "Cool": 7008,
      "Costner": 7009,
      "critic": 7010,
      "fourth": 7011,
      "pyrotechn": 7012,
      "payoff": 7013,
      "sustains": 7014,
      "momentum": 7015,
      "Prop": 7016,
      "nightmare": 7017,
      "infuses": 7018,
      "infidelity": 7019,
      "infuri": 7020,
      "legal": 7021,
      "legacy": 7022,
      "chiller": 7023,
      "Bigelow": 7024,
      "Features": 7025,
      "Feathers": 7026,
      "squarely": 7027,
      "issue": 7028,
      "existed": 7029,
      "weighty": 7030,
      "Stevens": 7031,
      "gorgeously": 7032,
      "hammer": 7033,
      "limit": 7034,
      "pulp": 7035,
      "pulse": 7036,
      "includes": 7037,
      "assume": 7038,
      "admittedly": 7039,
      "presentation": 7040,
      "procession": 7041,
      "truthful": 7042,
      "arently": 7043,
      "rolling": 7044,
      "layered": 7045,
      "naturalistic": 7046,
      "virtu": 7047,
      "burden": 7048,
      "routines": 7049,
      "recommended": 7050,
      "movement": 7051,
      "seats": 7052,
      "possibility": 7053,
      "possibilities": 7054,
      "shockingly": 7055,
      "groan": 7056,
      "revelation": 7057,
      "demons": 7058,
      "immers": 7059,
      "consciously": 7060,
      "favors": 7061,
      "literally": 7062,
      "Collater": 7063,
      "Gooding": 7064,
      "Powerpuff": 7065,
      "idiosy": 7066,
      "numbing": 7067,
      "numbingly": 7068,
      "aspirations": 7069,
      "rollicking": 7070,
      "ripper": 7071,
      "scores": 7072,
      "socio": 7073,
      "technically": 7074,
      "targeted": 7075,
      "Showgirls": 7076,
      "juicy": 7077,
      "juvenile": 7078,
      "nuanced": 7079,
      "punching": 7080,
      "swear": 7081,
      "speaks": 7082,
      "chops": 7083,
      "breathtakingly": 7084,
      "20th": 7085,
      "Dana": 7086,
      "Danny": 7087,
      "Morris": 7088,
      "fuzzy": 7089,
      "sorrow": 7090,
      "sordid": 7091,
      "incredible": 7092,
      "Charles": 7093,
      "Charlie": 7094,
      "remembering": 7095,
      "cartoonish": 7096,
      "Twohy": 7097,
      "floor": 7098,
      "million": 7099,
      "languorous": 7100,
      "awkwardly": 7101,
      "awkwardness": 7102,
      "atmospher": 7103,
      "Import": 7104,
      "Lucy": 7105,
      "Maj": 7106,
      "Traveler": 7107,
      "dishon": 7108,
      "picked": 7109,
      "texture": 7110,
      "vulner": 7111,
      "thrown": 7112,
      "recovery": 7113,
      "sucked": 7114,
      "connection": 7115,
      "compromise": 7116,
      "avoids": 7117,
      "crisis": 7118,
      "regardless": 7119,
      "drug": 7120,
      "guts": 7121,
      "recording": 7122,
      "loads": 7123,
      "loaded": 7124,
      "expense": 7125,
      "appreciated": 7126,
      "tearjerk": 7127,
      "photography": 7128,
      "surviv": 7129,
      "survive": 7130,
      "dependence": 7131,
      "pushes": 7132,
      "suggests": 7133,
      "Crazy": 7134,
      "Damon": 7135,
      "Evokes": 7136,
      "busters": 7137,
      "palpable": 7138,
      "immediately": 7139,
      "embraces": 7140,
      "accident": 7141,
      "willingness": 7142,
      "trashy": 7143,
      "Dragonfly": 7144,
      "challenges": 7145,
      "Elling": 7146,
      "Matthew": 7147,
      "Mattei": 7148,
      "Nights": 7149,
      "Renner": 7150,
      "circumst": 7151,
      "jumble": 7152,
      "sensuality": 7153,
      "madness": 7154,
      "vignet": 7155,
      "excesses": 7156,
      "objective": 7157,
      "motivations": 7158,
      "profoundly": 7159,
      "emphasis": 7160,
      "emphasizes": 7161,
      "embarrassed": 7162,
      "Salton": 7163,
      "frozen": 7164,
      "knack": 7165,
      "penetrating": 7166,
      "stretches": 7167,
      "boredom": 7168,
      "gloriously": 7169,
      "glorified": 7170,
      "satisfies": 7171,
      "Dogtown": 7172,
      "drowned": 7173,
      "sacrifice": 7174,
      "Secretary": 7175,
      "Jerry": 7176,
      "Korean": 7177,
      "Safe": 7178,
      "Saving": 7179,
      "Taymor": 7180,
      "celluloid": 7181,
      "dares": 7182,
      "lunacy": 7183,
      "vails": 7184,
      "reminiscent": 7185,
      "tosses": 7186,
      "defies": 7187,
      "properly": 7188,
      "teacher": 7189,
      "overwhelming": 7190,
      "succumbs": 7191,
      "communic": 7192,
      "distinguished": 7193,
      "costume": 7194,
      "costumes": 7195,
      "Assassin": 7196,
      "Assayas": 7197,
      "Bartleby": 7198,
      "Gangs": 7199,
      "Gangster": 7200,
      "Haynes": 7201,
      "True": 7202,
      "dressed": 7203,
      "dangerous": 7204,
      "eerie": 7205,
      "hibit": 7206,
      "judgment": 7207,
      "smooth": 7208,
      "wickedly": 7209,
      "influenced": 7210,
      "enormous": 7211,
      "enormously": 7212,
      "stiff": 7213,
      "separate": 7214,
      "amiable": 7215,
      "scratching": 7216,
      "illustrates": 7217,
      "accurate": 7218,
      "accurately": 7219,
      "discip": 7220,
      "dubious": 7221,
      "dubbed": 7222,
      "significant": 7223,
      "improvement": 7224,
      "transformation": 7225,
      "Better": 7226,
      "Crimes": 7227,
      "Callar": 7228,
      "Chai": 7229,
      "Cherish": 7230,
      "Fincher": 7231,
      "Hallmark": 7232,
      "Miyaz": 7233,
      "Photo": 7234,
      "Richard": 7235,
      "Sadly": 7236,
      "Simply": 7237,
      "tortured": 7238,
      "thousands": 7239,
      "inexplicably": 7240,
      "stinker": 7241,
      "complaint": 7242,
      "advice": 7243,
      "perceptive": 7244,
      "ignored": 7245,
      "audacious": 7246,
      "Interview": 7247,
      "athletes": 7248,
      "Spirit": 7249,
      "miracle": 7250,
      "borrows": 7251,
      "Roberto": 7252,
      "revealed": 7253,
      "symbolic": 7254,
      "Israeli": 7255,
      "benefit": 7256,
      "remotely": 7257,
      "guaranteed": 7258,
      "21st": 7259,
      "Avary": 7260,
      "Amazing": 7261,
      "Ballot": 7262,
      "Bridge": 7263,
      "Campanella": 7264,
      "Circuit": 7265,
      "Ferrara": 7266,
      "Hunter": 7267,
      "Jewish": 7268,
      "Metro": 7269,
      "Michel": 7270,
      "Nicole": 7271,
      "Olivi": 7272,
      "Piccoli": 7273,
      "Siegel": 7274,
      "Signs": 7275,
      "egger": 7276,
      "hidden": 7277,
      "unbearably": 7278,
      "nostalgia": 7279,
      "ironically": 7280,
      "articulate": 7281,
      "illumin": 7282,
      "weighs": 7283,
      "astounding": 7284,
      "mushy": 7285,
      "physical": 7286,
      "obligatory": 7287,
      "disguised": 7288,
      "translation": 7289,
      "Company": 7290,
      "instincts": 7291,
      "religious": 7292,
      "phenomenal": 7293,
      "squeeze": 7294,
      "conspiracy": 7295,
      "Rodriguez": 7296,
      "individual": 7297,
      "Ballistic": 7298,
      "Coppola": 7299,
      "Crossroads": 7300,
      "Douglas": 7301,
      "Merchant": 7302,
      "Mexican": 7303,
      "Napoleon": 7304,
      "Private": 7305,
      "Randall": 7306,
      "Spears": 7307,
      "borders": 7308,
      "fisted": 7309,
      "narciss": 7310,
      "anomie": 7311,
      "revolution": 7312,
      "betrayal": 7313,
      "radical": 7314,
      "precisely": 7315,
      "flourishes": 7316,
      "obscure": 7317,
      "disquieting": 7318,
      "blatant": 7319,
      "system": 7320,
      "resourceful": 7321,
      "jealousy": 7322,
      "newcomer": 7323,
      "cynicism": 7324,
      "excruciating": 7325,
      "specifically": 7326,
      "Formula": 7327,
      "distinctive": 7328,
      "installment": 7329,
      "Paxton": 7330,
      "claustrophob": 7331,
      "opportunities": 7332,
      "Holofcener": 7333,
      "melancholy": 7334,
      "European": 7335,
      "Griffith": 7336,
      "neighborhood": 7337,
      "Auto": 7338,
      "Birot": 7339,
      "CGI": 7340,
      "Century": 7341,
      "Curves": 7342,
      "Catholic": 7343,
      "Cletis": 7344,
      "Cinderella": 7345,
      "Derrida": 7346,
      "Definitely": 7347,
      "Divine": 7348,
      "Diane": 7349,
      "Drumline": 7350,
      "Eyre": 7351,
      "Eliza": 7352,
      "Empire": 7353,
      "Fontaine": 7354,
      "Fessenden": 7355,
      "Gondry": 7356,
      "Gibson": 7357,
      "Haneke": 7358,
      "Island": 7359,
      "Jordan": 7360,
      "Jennifer": 7361,
      "Kinnear": 7362,
      "Mendes": 7363,
      "Malkovich": 7364,
      "Nelson": 7365,
      "Numbers": 7366,
      "Ozpete": 7367,
      "Oedekerk": 7368,
      "Promises": 7369,
      "Predict": 7370,
      "Planet": 7371,
      "Ralph": 7372,
      "Rifkin": 7373,
      "Sayles": 7374,
      "Surprisingly": 7375,
      "Scorpion": 7376,
      "Venice": 7377,
      "Yiddish": 7378,
      "hokum": 7379,
      "hundred": 7380,
      "rerun": 7381,
      "resemble": 7382,
      "rescue": 7383,
      "arbitr": 7384,
      "toilet": 7385,
      "uncommonly": 7386,
      "abstract": 7387,
      "whodunit": 7388,
      "supremely": 7389,
      "exhaust": 7390,
      "scapes": 7391,
      "solemn": 7392,
      "Thornberry": 7393,
      "insipid": 7394,
      "ashvili": 7395,
      "Chelsea": 7396,
      "Ch芒teau": 7397,
      "Insomnia": 7398,
      "aficionados": 7399,
      "Schwarzenegger": 7400,
      "contrivances": 7401,
      "Collateral": 7402,
      "idiosyncratic": 7403,
      "tearjerker": 7404,
      "vignettes": 7405,
      "Miyazaki": 7406,
      "Ozpetek": 7407,
      "18": 7408,
      "22": 7409,
      "24": 7410,
      "40s": 7411,
      "4Ever": 7412,
      "50s": 7413,
      "80": 7414,
      "84": 7415,
      "86": 7416,
      "99": 7417,
      "AA": 7418,
      "Ac": 7419,
      "Ap": 7420,
      "Ay": 7421,
      "Apt": 7422,
      "App": 7423,
      "Amid": 7424,
      "Aug": 7425,
      "Adri": 7426,
      "Again": 7427,
      "Aston": 7428,
      "Bess": 7429,
      "Bus": 7430,
      "Bread": 7431,
      "Bollywood": 7432,
      "Bale": 7433,
      "Biel": 7434,
      "Bring": 7435,
      "Blan": 7436,
      "Bino": 7437,
      "Based": 7438,
      "Bett": 7439,
      "CI": 7440,
      "Cin": 7441,
      "Cul": 7442,
      "Cass": 7443,
      "Coo": 7444,
      "Croc": 7445,
      "DS": 7446,
      "Dist": 7447,
      "Dot": 7448,
      "Dover": 7449,
      "Drun": 7450,
      "Doo": 7451,
      "Dia": 7452,
      "Danger": 7453,
      "Em": 7454,
      "Er": 7455,
      "Fing": 7456,
      "Ford": 7457,
      "Fund": 7458,
      "Fien": 7459,
      "Favor": 7460,
      "Filled": 7461,
      "Gen": 7462,
      "Gay": 7463,
      "Gere": 7464,
      "Gary": 7465,
      "Gian": 7466,
      "Games": 7467,
      "Hor": 7468,
      "Hit": 7469,
      "Hel": 7470,
      "Hust": 7471,
      "Hew": 7472,
      "Hash": 7473,
      "Hawk": 7474,
      "Hawn": 7475,
      "Hicken": 7476,
      "Ian": 7477,
      "Ich": 7478,
      "Ima": 7479,
      "Iwa": 7480,
      "Jr": 7481,
      "Jay": 7482,
      "Jose": 7483,
      "Jane": 7484,
      "Jank": 7485,
      "Ku": 7486,
      "Kle": 7487,
      "Kay": 7488,
      "Kaf": 7489,
      "Kos": 7490,
      "Lion": 7491,
      "Lam": 7492,
      "Late": 7493,
      "Lord": 7494,
      "Laugh": 7495,
      "Many": 7496,
      "Molly": 7497,
      "Mey": 7498,
      "MTV": 7499,
      "Miss": 7500,
      "Muc": 7501,
      "Mummy": 7502,
      "Morton": 7503,
      "Na": 7504,
      "Nach": 7505,
      "Nash": 7506,
      "Nai": 7507,
      "Nicks": 7508,
      "Nett": 7509,
      "Norton": 7510,
      "Nemes": 7511,
      "Ob": 7512,
      "Oh": 7513,
      "Ole": 7514,
      "Ori": 7515,
      "Old": 7516,
      "Other": 7517,
      "Odd": 7518,
      "PB": 7519,
      "PG": 7520,
      "Pl": 7521,
      "Pr": 7522,
      "Pas": 7523,
      "Pom": 7524,
      "Pap": 7525,
      "Pear": 7526,
      "Pass": 7527,
      "Port": 7528,
      "Pelling": 7529,
      "Person": 7530,
      "Ry": 7531,
      "Rum": 7532,
      "Rice": 7533,
      "Raim": 7534,
      "Ringu": 7535,
      "Sing": 7536,
      "Sel": 7537,
      "Seven": 7538,
      "Spect": 7539,
      "Slack": 7540,
      "Stale": 7541,
      "Sav": 7542,
      "Sund": 7543,
      "Slap": 7544,
      "Suc": 7545,
      "Skins": 7546,
      "Tro": 7547,
      "Tad": 7548,
      "Tol": 7549,
      "Tout": 7550,
      "Test": 7551,
      "Try": 7552,
      "Tot": 7553,
      "Todd": 7554,
      "Teach": 7555,
      "Taver": 7556,
      "Talk": 7557,
      "Treasure": 7558,
      "Une": 7559,
      "Van": 7560,
      "Vul": 7561,
      "Vie": 7562,
      "Vide": 7563,
      "Want": 7564,
      "Watch": 7565,
      "Wang": 7566,
      "Wert": 7567,
      "Wood": 7568,
      "Wife": 7569,
      "Woll": 7570,
      "Yard": 7571,
      "avi": 7572,
      "athan": 7573,
      "aise": 7574,
      "aving": 7575,
      "auster": 7576,
      "ba": 7577,
      "bli": 7578,
      "bop": 7579,
      "bind": 7580,
      "bile": 7581,
      "bread": 7582,
      "bitten": 7583,
      "bones": 7584,
      "bbing": 7585,
      "brush": 7586,
      "bump": 7587,
      "cad": 7588,
      "cers": 7589,
      "caf": 7590,
      "cible": 7591,
      "dul": 7592,
      "dge": 7593,
      "dur": 7594,
      "dles": 7595,
      "doll": 7596,
      "daught": 7597,
      "daughter": 7598,
      "eu": 7599,
      "ean": 7600,
      "ema": 7601,
      "echo": 7602,
      "etern": 7603,
      "fell": 7604,
      "fru": 7605,
      "folly": 7606,
      "flies": 7607,
      "farts": 7608,
      "focus": 7609,
      "gre": 7610,
      "gal": 7611,
      "gle": 7612,
      "gli": 7613,
      "gers": 7614,
      "gall": 7615,
      "gus": 7616,
      "gage": 7617,
      "gically": 7618,
      "gels": 7619,
      "grew": 7620,
      "gasp": 7621,
      "gave": 7622,
      "gasm": 7623,
      "ghetto": 7624,
      "hing": 7625,
      "hed": 7626,
      "hous": 7627,
      "hob": 7628,
      "hates": 7629,
      "hungry": 7630,
      "iat": 7631,
      "ipe": 7632,
      "iac": 7633,
      "iph": 7634,
      "ibles": 7635,
      "jer": 7636,
      "jes": 7637,
      "jar": 7638,
      "juni": 7639,
      "jaz": 7640,
      "kil": 7641,
      "kits": 7642,
      "kne": 7643,
      "kho": 7644,
      "kiness": 7645,
      "kitch": 7646,
      "ls": 7647,
      "lam": 7648,
      "lest": 7649,
      "lantic": 7650,
      "lunch": 7651,
      "lision": 7652,
      "mou": 7653,
      "mate": 7654,
      "mist": 7655,
      "mour": 7656,
      "mull": 7657,
      "mired": 7658,
      "nis": 7659,
      "nary": 7660,
      "ningly": 7661,
      "nible": 7662,
      "nifty": 7663,
      "oke": 7664,
      "oge": 7665,
      "ook": 7666,
      "oved": 7667,
      "oia": 7668,
      "ograph": 7669,
      "ozy": 7670,
      "ovan": 7671,
      "ological": 7672,
      "pis": 7673,
      "pom": 7674,
      "pess": 7675,
      "pous": 7676,
      "pup": 7677,
      "pink": 7678,
      "pian": 7679,
      "pier": 7680,
      "pride": 7681,
      "punk": 7682,
      "penter": 7683,
      "padded": 7684,
      "r茅": 7685,
      "rant": 7686,
      "rors": 7687,
      "ratt": 7688,
      "rics": 7689,
      "rhet": 7690,
      "sen": 7691,
      "sam": 7692,
      "sits": 7693,
      "spe": 7694,
      "sso": 7695,
      "spre": 7696,
      "sap": 7697,
      "sard": 7698,
      "sme": 7699,
      "sack": 7700,
      "snow": 7701,
      "slog": 7702,
      "slea": 7703,
      "sib": 7704,
      "squir": 7705,
      "sized": 7706,
      "sively": 7707,
      "sung": 7708,
      "switch": 7709,
      "sabo": 7710,
      "ti": 7711,
      "t茅": 7712,
      "tin": 7713,
      "tum": 7714,
      "twe": 7715,
      "tense": 7716,
      "trench": 7717,
      "trot": 7718,
      "task": 7719,
      "tattered": 7720,
      "tensions": 7721,
      "uil": 7722,
      "uct": 7723,
      "ura": 7724,
      "uro": 7725,
      "uge": 7726,
      "uated": 7727,
      "umach": 7728,
      "vre": 7729,
      "vine": 7730,
      "vish": 7731,
      "vict": 7732,
      "vile": 7733,
      "vishing": 7734,
      "vasive": 7735,
      "vado": 7736,
      "wen": 7737,
      "wart": 7738,
      "wist": 7739,
      "wins": 7740,
      "wire": 7741,
      "wack": 7742,
      "wrest": 7743,
      "wishing": 7744,
      "wreck": 7745,
      "xplo": 7746,
      "xual": 7747,
      "yi": 7748,
      "yac": 7749,
      "zes": 7750,
      "zil": 7751,
      "zard": 7752,
      "zomb": 7753,
      "帽uel": 7754,
      "聽1": 7755,
      "thread": 7756,
      "thirty": 7757,
      "thumbs": 7758,
      "inion": 7759,
      "ince": 7760,
      "inous": 7761,
      "inary": 7762,
      "infl": 7763,
      "inform": 7764,
      "insuff": 7765,
      "instruct": 7766,
      "innu": 7767,
      "indifference": 7768,
      "incoherence": 7769,
      "insurance": 7770,
      "anal": 7771,
      "anity": 7772,
      "anig": 7773,
      "ancing": 7774,
      "anza": 7775,
      "anachron": 7776,
      "anonym": 7777,
      "eral": 7778,
      "erot": 7779,
      "erie": 7780,
      "erile": 7781,
      "rein": 7782,
      "redi": 7783,
      "retal": 7784,
      "reef": 7785,
      "reci": 7786,
      "recall": 7787,
      "retains": 7788,
      "research": 7789,
      "reserved": 7790,
      "relying": 7791,
      "retool": 7792,
      "replete": 7793,
      "ento": 7794,
      "endo": 7795,
      "enig": 7796,
      "enet": 7797,
      "ensure": 7798,
      "enchant": 7799,
      "enanig": 7800,
      "atre": 7801,
      "attack": 7802,
      "theories": 7803,
      "thematically": 7804,
      "isk": 7805,
      "isly": 7806,
      "onous": 7807,
      "onious": 7808,
      "onistic": 7809,
      "ingredi": 7810,
      "oral": 7811,
      "orid": 7812,
      "oroughly": 7813,
      "orium": 7814,
      "orthodo": 7815,
      "ito": 7816,
      "oufla": 7817,
      "andal": 7818,
      "aland": 7819,
      "albe": 7820,
      "aron": 7821,
      "arse": 7822,
      "arrow": 7823,
      "arms": 7824,
      "stas": 7825,
      "stab": 7826,
      "stable": 7827,
      "stac": 7828,
      "stark": 7829,
      "stages": 7830,
      "stitch": 7831,
      "stagger": 7832,
      "tops": 7833,
      "tomor": 7834,
      "topher": 7835,
      "edits": 7836,
      "edged": 7837,
      "icz": 7838,
      "icts": 7839,
      "iceless": 7840,
      "iles": 7841,
      "ille": 7842,
      "ilder": 7843,
      "ilated": 7844,
      "ilized": 7845,
      "asi": 7846,
      "asma": 7847,
      "asper": 7848,
      "asleep": 7849,
      "omed": 7850,
      "omas": 7851,
      "leth": 7852,
      "leck": 7853,
      "lete": 7854,
      "league": 7855,
      "chair": 7856,
      "chron": 7857,
      "mock": 7858,
      "eling": 7859,
      "eline": 7860,
      "elbow": 7861,
      "elusive": 7862,
      "elbeck": 7863,
      "cting": 7864,
      "cted": 7865,
      "ctions": 7866,
      "ented": 7867,
      "enters": 7868,
      "heat": 7869,
      "heated": 7870,
      "hecies": 7871,
      "heavi": 7872,
      "seas": 7873,
      "searing": 7874,
      "seams": 7875,
      "segment": 7876,
      "selection": 7877,
      "bew": 7878,
      "beer": 7879,
      "beings": 7880,
      "beguil": 7881,
      "une": 7882,
      "unt": 7883,
      "unge": 7884,
      "unex": 7885,
      "unable": 7886,
      "unless": 7887,
      "unning": 7888,
      "undead": 7889,
      "unpretentious": 7890,
      "unmemorable": 7891,
      "uninvolving": 7892,
      "unforgettable": 7893,
      "unmention": 7894,
      "unsympathetic": 7895,
      "uncondit": 7896,
      "unfulfilling": 7897,
      "unassuming": 7898,
      "uneventful": 7899,
      "map": 7900,
      "mail": 7901,
      "macul": 7902,
      "macab": 7903,
      "via": 7904,
      "vial": 7905,
      "vibe": 7906,
      "rape": 7907,
      "rader": 7908,
      "rapt": 7909,
      "radar": 7910,
      "raqui": 7911,
      "ravishing": 7912,
      "ulate": 7913,
      "dete": 7914,
      "deprec": 7915,
      "determ": 7916,
      "detract": 7917,
      "loe": 7918,
      "lop": 7919,
      "logue": 7920,
      "looper": 7921,
      "logged": 7922,
      "imum": 7923,
      "imper": 7924,
      "imated": 7925,
      "imbu": 7926,
      "imony": 7927,
      "immature": 7928,
      "implaus": 7929,
      "immacul": 7930,
      "ables": 7931,
      "abund": 7932,
      "forth": 7933,
      "cely": 7934,
      "lia": 7935,
      "ligh": 7936,
      "rog": 7937,
      "rop": 7938,
      "robust": 7939,
      "rooge": 7940,
      "filming": 7941,
      "coma": 7942,
      "comings": 7943,
      "composed": 7944,
      "whip": 7945,
      "whiny": 7946,
      "noon": 7947,
      "nose": 7948,
      "suits": 7949,
      "sugar": 7950,
      "sucks": 7951,
      "suitable": 7952,
      "suasive": 7953,
      "Theatre": 7954,
      "kept": 7955,
      "adway": 7956,
      "adage": 7957,
      "addle": 7958,
      "advised": 7959,
      "admission": 7960,
      "rior": 7961,
      "rigid": 7962,
      "outer": 7963,
      "outcome": 7964,
      "outtakes": 7965,
      "amid": 7966,
      "amber": 7967,
      "ession": 7968,
      "essions": 7969,
      "irling": 7970,
      "irds": 7971,
      "irrelevant": 7972,
      "laud": 7973,
      "lavish": 7974,
      "dies": 7975,
      "digs": 7976,
      "geo": 7977,
      "geon": 7978,
      "geared": 7979,
      "moviegoing": 7980,
      "shed": 7981,
      "shri": 7982,
      "shout": 7983,
      "shine": 7984,
      "shodd": 7985,
      "shining": 7986,
      "shorter": 7987,
      "shenanig": 7988,
      "feces": 7989,
      "exit": 7990,
      "exal": 7991,
      "exists": 7992,
      "exposed": 7993,
      "exterior": 7994,
      "exasper": 7995,
      "doc": 7996,
      "doct": 7997,
      "onely": 7998,
      "odile": 7999,
      "odys": 8000,
      "esting": 8001,
      "estinian": 8002,
      "uments": 8003,
      "poo": 8004,
      "pole": 8005,
      "conqu": 8006,
      "conned": 8007,
      "congrat": 8008,
      "perm": 8009,
      "pering": 8010,
      "peror": 8011,
      "perme": 8012,
      "pervasive": 8013,
      "persuasive": 8014,
      "allusions": 8015,
      "scrap": 8016,
      "scruff": 8017,
      "tag": 8018,
      "taps": 8019,
      "tapping": 8020,
      "soever": 8021,
      "soars": 8022,
      "soaked": 8023,
      "eming": 8024,
      "artful": 8025,
      "artsy": 8026,
      "ills": 8027,
      "illness": 8028,
      "hazard": 8029,
      "urs": 8030,
      "urgency": 8031,
      "quet": 8032,
      "quie": 8033,
      "queness": 8034,
      "quarter": 8035,
      "quasi": 8036,
      "worry": 8037,
      "manship": 8038,
      "manners": 8039,
      "goo": 8040,
      "iding": 8041,
      "idget": 8042,
      "idedly": 8043,
      "prevent": 8044,
      "pregn": 8045,
      "proof": 8046,
      "prose": 8047,
      "progra": 8048,
      "provin": 8049,
      "owes": 8050,
      "notes": 8051,
      "notorious": 8052,
      "notwithstanding": 8053,
      "weary": 8054,
      "weeks": 8055,
      "weaves": 8056,
      "ellingly": 8057,
      "chard": 8058,
      "thern": 8059,
      "therine": 8060,
      "spi": 8061,
      "spins": 8062,
      "spice": 8063,
      "spends": 8064,
      "spider": 8065,
      "spital": 8066,
      "spiced": 8067,
      "splatter": 8068,
      "spaces": 8069,
      "sprightly": 8070,
      "likeable": 8071,
      "astron": 8072,
      "astute": 8073,
      "agend": 8074,
      "agree": 8075,
      "agged": 8076,
      "aganda": 8077,
      "igree": 8078,
      "iguch": 8079,
      "inting": 8080,
      "intact": 8081,
      "opt": 8082,
      "opers": 8083,
      "opts": 8084,
      "opinion": 8085,
      "indict": 8086,
      "upper": 8087,
      "enduring": 8088,
      "ety": 8089,
      "ette": 8090,
      "arded": 8091,
      "function": 8092,
      "fundam": 8093,
      "storytell": 8094,
      "boom": 8095,
      "boob": 8096,
      "boils": 8097,
      "bogged": 8098,
      "boiler": 8099,
      "boasts": 8100,
      "boost": 8101,
      "bogus": 8102,
      "tea": 8103,
      "ause": 8104,
      "ptic": 8105,
      "rug": 8106,
      "ruined": 8107,
      "aco": 8108,
      "acle": 8109,
      "acid": 8110,
      "accum": 8111,
      "epp": 8112,
      "eped": 8113,
      "epiph": 8114,
      "lesser": 8115,
      "Angels": 8116,
      "trap": 8117,
      "trapped": 8118,
      "tragically": 8119,
      "ishment": 8120,
      "icky": 8121,
      "meal": 8122,
      "meet": 8123,
      "megap": 8124,
      "anywhere": 8125,
      "workplace": 8126,
      "workshop": 8127,
      "cles": 8128,
      "clut": 8129,
      "clad": 8130,
      "clunky": 8131,
      "thrust": 8132,
      "Thought": 8133,
      "Thumbs": 8134,
      "Thirteen": 8135,
      "Thoroughly": 8136,
      "Thomas": 8137,
      "guided": 8138,
      "ffer": 8139,
      "crew": 8140,
      "creations": 8141,
      "otion": 8142,
      "insign": 8143,
      "insider": 8144,
      "mura": 8145,
      "phon": 8146,
      "phrase": 8147,
      "overrun": 8148,
      "overtly": 8149,
      "goods": 8150,
      "lown": 8151,
      "lowbrow": 8152,
      "lowicz": 8153,
      "merits": 8154,
      "prism": 8155,
      "prime": 8156,
      "princess": 8157,
      "fault": 8158,
      "flame": 8159,
      "florid": 8160,
      "humans": 8161,
      "assass": 8162,
      "assign": 8163,
      "assassin": 8164,
      "canon": 8165,
      "paul": 8166,
      "obstac": 8167,
      "surf": 8168,
      "suring": 8169,
      "surrender": 8170,
      "heritage": 8171,
      "disput": 8172,
      "displays": 8173,
      "disregard": 8174,
      "disintegr": 8175,
      "whatsoever": 8176,
      "aches": 8177,
      "geness": 8178,
      "genres": 8179,
      "genius": 8180,
      "realizing": 8181,
      "realistically": 8182,
      "makeup": 8183,
      "suburban": 8184,
      "submarine": 8185,
      "compul": 8186,
      "compared": 8187,
      "screens": 8188,
      "acknow": 8189,
      "ackles": 8190,
      "fection": 8191,
      "interaction": 8192,
      "interpret": 8193,
      "interviews": 8194,
      "asham": 8195,
      "visation": 8196,
      "visions": 8197,
      "visible": 8198,
      "bral": 8199,
      "brim": 8200,
      "brick": 8201,
      "everywhere": 8202,
      "impart": 8203,
      "impenet": 8204,
      "ivable": 8205,
      "Chamber": 8206,
      "ppingly": 8207,
      "ppled": 8208,
      "blind": 8209,
      "bluster": 8210,
      "tripe": 8211,
      "Invin": 8212,
      "gravity": 8213,
      "afing": 8214,
      "seeks": 8215,
      "stered": 8216,
      "undercut": 8217,
      "undercurrent": 8218,
      "underlying": 8219,
      "undercuts": 8220,
      "entertained": 8221,
      "entertainingly": 8222,
      "grou": 8223,
      "grim": 8224,
      "grate": 8225,
      "grisly": 8226,
      "fred": 8227,
      "frequent": 8228,
      "osexual": 8229,
      "angry": 8230,
      "centered": 8231,
      "smash": 8232,
      "sminsky": 8233,
      "resents": 8234,
      "motions": 8235,
      "cumbers": 8236,
      "cumulative": 8237,
      "awake": 8238,
      "downward": 8239,
      "ained": 8240,
      "Stre": 8241,
      "Stay": 8242,
      "State": 8243,
      "States": 8244,
      "Studi": 8245,
      "Strang": 8246,
      "cath": 8247,
      "holy": 8248,
      "myst": 8249,
      "oclast": 8250,
      "versions": 8251,
      "pointed": 8252,
      "joyless": 8253,
      "ighter": 8254,
      "firm": 8255,
      "characteristic": 8256,
      "wars": 8257,
      "warmed": 8258,
      "warfare": 8259,
      "lights": 8260,
      "lightly": 8261,
      "auteur": 8262,
      "greater": 8263,
      "greatness": 8264,
      "righte": 8265,
      "isms": 8266,
      "choos": 8267,
      "chosen": 8268,
      "scenic": 8269,
      "laughably": 8270,
      "vened": 8271,
      "styles": 8272,
      "misses": 8273,
      "miserable": 8274,
      "misguided": 8275,
      "backdrop": 8276,
      "porno": 8277,
      "steals": 8278,
      "steeped": 8279,
      "scripting": 8280,
      "athic": 8281,
      "capability": 8282,
      "capital": 8283,
      "strate": 8284,
      "strings": 8285,
      "strung": 8286,
      "strands": 8287,
      "plin": 8288,
      "pluck": 8289,
      "truck": 8290,
      "collision": 8291,
      "enjoys": 8292,
      "enjoyably": 8293,
      "shower": 8294,
      "nerves": 8295,
      "nervy": 8296,
      "cuteness": 8297,
      "cutesy": 8298,
      "extent": 8299,
      "meditative": 8300,
      "cars": 8301,
      "carrying": 8302,
      "powered": 8303,
      "powerfully": 8304,
      "humanly": 8305,
      "humanizing": 8306,
      "cyber": 8307,
      "mond": 8308,
      "mono": 8309,
      "monument": 8310,
      "chees": 8311,
      "cheeky": 8312,
      "gio": 8313,
      "contest": 8314,
      "avant": 8315,
      "fined": 8316,
      "surprised": 8317,
      "handling": 8318,
      "tition": 8319,
      "titled": 8320,
      "needlessly": 8321,
      "glu": 8322,
      "glorious": 8323,
      "worldly": 8324,
      "rels": 8325,
      "relly": 8326,
      "relate": 8327,
      "relative": 8328,
      "reluct": 8329,
      "buzz": 8330,
      "foremost": 8331,
      "foreign": 8332,
      "higher": 8333,
      "forms": 8334,
      "formly": 8335,
      "excited": 8336,
      "speculation": 8337,
      "specimen": 8338,
      "flag": 8339,
      "flailing": 8340,
      "horrors": 8341,
      "leather": 8342,
      "leavened": 8343,
      "umbling": 8344,
      "appet": 8345,
      "appeals": 8346,
      "appearing": 8347,
      "sentence": 8348,
      "lotte": 8349,
      "expects": 8350,
      "expecting": 8351,
      "messy": 8352,
      "Alt": 8353,
      "Alone": 8354,
      "Almost": 8355,
      "Alice": 8356,
      "Alfred": 8357,
      "Been": 8358,
      "Beach": 8359,
      "Becomes": 8360,
      "Because": 8361,
      "fiend": 8362,
      "twink": 8363,
      "energ": 8364,
      "anek": 8365,
      "struck": 8366,
      "graphically": 8367,
      "margin": 8368,
      "poll": 8369,
      "polis": 8370,
      "trou": 8371,
      "trim": 8372,
      "Sept": 8373,
      "Second": 8374,
      "United": 8375,
      "Until": 8376,
      "Undisput": 8377,
      "passes": 8378,
      "passions": 8379,
      "passages": 8380,
      "ematic": 8381,
      "elevate": 8382,
      "ibly": 8383,
      "says": 8384,
      "classical": 8385,
      "fascination": 8386,
      "fascinate": 8387,
      "closing": 8388,
      "mortal": 8389,
      "moronic": 8390,
      "morbid": 8391,
      "uffy": 8392,
      "childlike": 8393,
      "distress": 8394,
      "fron": 8395,
      "strains": 8396,
      "iculously": 8397,
      "campy": 8398,
      "camoufla": 8399,
      "skate": 8400,
      "deepest": 8401,
      "predictability": 8402,
      "darkly": 8403,
      "emptiness": 8404,
      "slam": 8405,
      "inviting": 8406,
      "1970s": 8407,
      "apply": 8408,
      "ierce": 8409,
      "allowed": 8410,
      "airless": 8411,
      "bravery": 8412,
      "brains": 8413,
      "midway": 8414,
      "narrator": 8415,
      "elessness": 8416,
      "Notorious": 8417,
      "corrupt": 8418,
      "psyche": 8419,
      "psyched": 8420,
      "psychop": 8421,
      "saves": 8422,
      "saving": 8423,
      "spective": 8424,
      "superbly": 8425,
      "probing": 8426,
      "Boasts": 8427,
      "Brother": 8428,
      "Broadway": 8429,
      "heady": 8430,
      "headed": 8431,
      "engagingly": 8432,
      "satisfactory": 8433,
      "falling": 8434,
      "student": 8435,
      "placement": 8436,
      "Leon": 8437,
      "starting": 8438,
      "exploiting": 8439,
      "exploitive": 8440,
      "explosion": 8441,
      "shortcomings": 8442,
      "naive": 8443,
      "nails": 8444,
      "nedy": 8445,
      "sensibility": 8446,
      "sensitivity": 8447,
      "lett": 8448,
      "letdown": 8449,
      "narratively": 8450,
      "devolves": 8451,
      "devote": 8452,
      "impressions": 8453,
      "stronger": 8454,
      "strongly": 8455,
      "strongest": 8456,
      "Room": 8457,
      "Schepis": 8458,
      "Schae": 8459,
      "Schumach": 8460,
      "Schrader": 8461,
      "helped": 8462,
      "familiarity": 8463,
      "hopes": 8464,
      "puerile": 8465,
      "refuge": 8466,
      "profane": 8467,
      "Atlantic": 8468,
      "Cons": 8469,
      "Contains": 8470,
      "Shot": 8471,
      "Shrek": 8472,
      "broke": 8473,
      "brother": 8474,
      "feld": 8475,
      "promises": 8476,
      "promisingly": 8477,
      "zzzz": 8478,
      "Enter": 8479,
      "Weeks": 8480,
      "reasons": 8481,
      "chances": 8482,
      "universe": 8483,
      "uniformly": 8484,
      "insightfully": 8485,
      "denying": 8486,
      "denied": 8487,
      "damning": 8488,
      "luto": 8489,
      "nonstop": 8490,
      "heroic": 8491,
      "subtext": 8492,
      "successfully": 8493,
      "summertime": 8494,
      "Jackass": 8495,
      "rising": 8496,
      "elsewhere": 8497,
      "complexities": 8498,
      "Arth": 8499,
      "Baran": 8500,
      "Barrels": 8501,
      "dawn": 8502,
      "dazzle": 8503,
      "Margar": 8504,
      "Marquis": 8505,
      "Marriage": 8506,
      "zeal": 8507,
      "beats": 8508,
      "detached": 8509,
      "intelligently": 8510,
      "breaking": 8511,
      "psychologically": 8512,
      "drops": 8513,
      "droppingly": 8514,
      "landmark": 8515,
      "landscapes": 8516,
      "wastes": 8517,
      "decided": 8518,
      "decidedly": 8519,
      "settle": 8520,
      "Together": 8521,
      "littered": 8522,
      "strip": 8523,
      "exception": 8524,
      "brilliance": 8525,
      "involve": 8526,
      "garde": 8527,
      "pedigree": 8528,
      "thinly": 8529,
      "sympath": 8530,
      "mysteries": 8531,
      "hilariously": 8532,
      "inspires": 8533,
      "Directed": 8534,
      "Carol": 8535,
      "Carpenter": 8536,
      "uttering": 8537,
      "condensed": 8538,
      "intentionally": 8539,
      "crafts": 8540,
      "III": 8541,
      "aimlessly": 8542,
      "positions": 8543,
      "conceptual": 8544,
      "projects": 8545,
      "rushed": 8546,
      "disappointingly": 8547,
      "Exc": 8548,
      "Walt": 8549,
      "calm": 8550,
      "swim": 8551,
      "swinging": 8552,
      "develops": 8553,
      "developments": 8554,
      "combat": 8555,
      "combust": 8556,
      "extraordin": 8557,
      "blandness": 8558,
      "believing": 8559,
      "historically": 8560,
      "Lock": 8561,
      "Look": 8562,
      "aiian": 8563,
      "fires": 8564,
      "spots": 8565,
      "walking": 8566,
      "wallop": 8567,
      "instance": 8568,
      "hopefully": 8569,
      "Lovely": 8570,
      "Only": 8571,
      "criticism": 8572,
      "mascul": 8573,
      "endeav": 8574,
      "artistry": 8575,
      "Whenever": 8576,
      "spectacularly": 8577,
      "McKay": 8578,
      "Provides": 8579,
      "buddy": 8580,
      "infomer": 8581,
      "conventions": 8582,
      "ussion": 8583,
      "succeeded": 8584,
      "followed": 8585,
      "Poss": 8586,
      "Scrooge": 8587,
      "amazingly": 8588,
      "cops": 8589,
      "dimension": 8590,
      "squad": 8591,
      "forcefully": 8592,
      "existent": 8593,
      "splend": 8594,
      "splash": 8595,
      "splitting": 8596,
      "splashed": 8597,
      "flashes": 8598,
      "flashbacks": 8599,
      "package": 8600,
      "imaginable": 8601,
      "horribly": 8602,
      "closely": 8603,
      "frustratingly": 8604,
      "depths": 8605,
      "barrel": 8606,
      "hammy": 8607,
      "limits": 8608,
      "pulpy": 8609,
      "pulsive": 8610,
      "slapdash": 8611,
      "inclination": 8612,
      "depressed": 8613,
      "depression": 8614,
      "presenting": 8615,
      "failing": 8616,
      "failed": 8617,
      "twisting": 8618,
      "skills": 8619,
      "skillful": 8620,
      "Shafer": 8621,
      "sources": 8622,
      "vari": 8623,
      "secondhand": 8624,
      "unknown": 8625,
      "medium": 8626,
      "friendly": 8627,
      "virtues": 8628,
      "foibles": 8629,
      "purely": 8630,
      "voy": 8631,
      "voices": 8632,
      "reaching": 8633,
      "reached": 8634,
      "absurdist": 8635,
      "absurdities": 8636,
      "goofball": 8637,
      "pairing": 8638,
      "sustained": 8639,
      "Friend": 8640,
      "Paid": 8641,
      "Quaid": 8642,
      "faces": 8643,
      "grotes": 8644,
      "killed": 8645,
      "private": 8646,
      "waterlogged": 8647,
      "innocent": 8648,
      "revelations": 8649,
      "rewarded": 8650,
      "improvisation": 8651,
      "manipulation": 8652,
      "mannered": 8653,
      "telegraphed": 8654,
      "gracefully": 8655,
      "cartoons": 8656,
      "literate": 8657,
      "Monsoon": 8658,
      "cording": 8659,
      "idiotic": 8660,
      "idiots": 8661,
      "malaise": 8662,
      "schlock": 8663,
      "testimony": 8664,
      "throwing": 8665,
      "throwback": 8666,
      "reliable": 8667,
      "isterous": 8668,
      "soccer": 8669,
      "derived": 8670,
      "indulgence": 8671,
      "resonate": 8672,
      "reminding": 8673,
      "reminded": 8674,
      "Beautiful": 8675,
      "struggling": 8676,
      "struggles": 8677,
      "technique": 8678,
      "celebrity": 8679,
      "flows": 8680,
      "flower": 8681,
      "homosexual": 8682,
      "nuance": 8683,
      "sessions": 8684,
      "sweat": 8685,
      "towards": 8686,
      "metaphors": 8687,
      "credited": 8688,
      "dragons": 8689,
      "primary": 8690,
      "primitive": 8691,
      "continuity": 8692,
      "marvelously": 8693,
      "uniquely": 8694,
      "Berg": 8695,
      "Canad": 8696,
      "Daniel": 8697,
      "court": 8698,
      "domin": 8699,
      "fuel": 8700,
      "furiously": 8701,
      "nesday": 8702,
      "attering": 8703,
      "escaped": 8704,
      "escapist": 8705,
      "pertinent": 8706,
      "Charlotte": 8707,
      "respectable": 8708,
      "transgress": 8709,
      "superficiality": 8710,
      "Graham": 8711,
      "Romantic": 8712,
      "Romanek": 8713,
      "Sweetest": 8714,
      "Wednesday": 8715,
      "baggage": 8716,
      "cerebral": 8717,
      "flop": 8718,
      "savage": 8719,
      "stoop": 8720,
      "machismo": 8721,
      "amentals": 8722,
      "fearless": 8723,
      "weakness": 8724,
      "intensely": 8725,
      "productions": 8726,
      "elegance": 8727,
      "elegantly": 8728,
      "Rocky": 8729,
      "exploring": 8730,
      "Edward": 8731,
      "Lucas": 8732,
      "Maid": 8733,
      "Mean": 8734,
      "Orchard": 8735,
      "Trapped": 8736,
      "brightly": 8737,
      "dreck": 8738,
      "throat": 8739,
      "incident": 8740,
      "sucker": 8741,
      "support": 8742,
      "scathing": 8743,
      "ineptly": 8744,
      "bodily": 8745,
      "bodied": 8746,
      "obsessive": 8747,
      "obsessions": 8748,
      "achieving": 8749,
      "relentless": 8750,
      "regarding": 8751,
      "repetition": 8752,
      "demonstrate": 8753,
      "demonstrating": 8754,
      "commercialism": 8755,
      "Adaptation": 8756,
      "Perdition": 8757,
      "Runner": 8758,
      "Satin": 8759,
      "Smoking": 8760,
      "biography": 8761,
      "gifts": 8762,
      "punct": 8763,
      "pungent": 8764,
      "pileup": 8765,
      "turgid": 8766,
      "liberal": 8767,
      "liberation": 8768,
      "liberating": 8769,
      "tackling": 8770,
      "accepting": 8771,
      "muddle": 8772,
      "survival": 8773,
      "glimpses": 8774,
      "pushed": 8775,
      "metaphorical": 8776,
      "stereotypical": 8777,
      "Brits": 8778,
      "Brings": 8779,
      "Craig": 8780,
      "Craven": 8781,
      "Julie": 8782,
      "boldly": 8783,
      "clips": 8784,
      "lady": 8785,
      "laden": 8786,
      "practice": 8787,
      "deception": 8788,
      "deceptions": 8789,
      "immediacy": 8790,
      "suspecting": 8791,
      "embrace": 8792,
      "embracing": 8793,
      "protagonists": 8794,
      "insultingly": 8795,
      "surrounded": 8796,
      "Christopher": 8797,
      "ridiculousness": 8798,
      "campus": 8799,
      "villains": 8800,
      "responsibility": 8801,
      "Bu帽uel": 8802,
      "Below": 8803,
      "Burr": 8804,
      "Burger": 8805,
      "Farrelly": 8806,
      "Franklin": 8807,
      "Gosford": 8808,
      "Terry": 8809,
      "jumbo": 8810,
      "jumps": 8811,
      "milk": 8812,
      "slipper": 8813,
      "require": 8814,
      "aristo": 8815,
      "eloquently": 8816,
      "madden": 8817,
      "democra": 8818,
      "comprehension": 8819,
      "admirably": 8820,
      "neglig": 8821,
      "objectivity": 8822,
      "Indians": 8823,
      "Cuban": 8824,
      "Father": 8825,
      "Irwin": 8826,
      "Jeff": 8827,
      "Palestinian": 8828,
      "Piano": 8829,
      "Salma": 8830,
      "Wesley": 8831,
      "Willis": 8832,
      "fingers": 8833,
      "hideously": 8834,
      "mountain": 8835,
      "mounted": 8836,
      "pitfalls": 8837,
      "pitched": 8838,
      "wondrous": 8839,
      "reduces": 8840,
      "reduced": 8841,
      "stretch": 8842,
      "stretched": 8843,
      "chaos": 8844,
      "rocket": 8845,
      "shadowy": 8846,
      "terrorism": 8847,
      "conditioning": 8848,
      "autobiographical": 8849,
      "characterization": 8850,
      "crackle": 8851,
      "drowns": 8852,
      "Scotland": 8853,
      "connected": 8854,
      "Dickensian": 8855,
      "recycling": 8856,
      "Generation": 8857,
      "Overall": 8858,
      "baffled": 8859,
      "fabul": 8860,
      "sneaks": 8861,
      "ennial": 8862,
      "unintentional": 8863,
      "debate": 8864,
      "ambiguity": 8865,
      "network": 8866,
      "establishes": 8867,
      "established": 8868,
      "constantly": 8869,
      "teachers": 8870,
      "idealism": 8871,
      "succumb": 8872,
      "communal": 8873,
      "distinguish": 8874,
      "\\*\\*\\*": 8875,
      "recogniz": 8876,
      "recognize": 8877,
      "professionals": 8878,
      "Shakespearean": 8879,
      "Bartlett": 8880,
      "Bruce": 8881,
      "Claude": 8882,
      "Donovan": 8883,
      "Hayek": 8884,
      "Koepp": 8885,
      "Kosminsky": 8886,
      "Longest": 8887,
      "Payami": 8888,
      "darned": 8889,
      "hurt": 8890,
      "hurried": 8891,
      "smoother": 8892,
      "trees": 8893,
      "tempting": 8894,
      "incongru": 8895,
      "influence": 8896,
      "departure": 8897,
      "department": 8898,
      "formative": 8899,
      "suitably": 8900,
      "advertised": 8901,
      "outsiders": 8902,
      "youthful": 8903,
      "employs": 8904,
      "provided": 8905,
      "inducing": 8906,
      "gratuit": 8907,
      "awareness": 8908,
      "mythic": 8909,
      "handsomely": 8910,
      "1984": 8911,
      "transparent": 8912,
      "blockbuster": 8913,
      "blockbusters": 8914,
      "innovation": 8915,
      "innovative": 8916,
      "transforms": 8917,
      "Swimming": 8918,
      "Swimfan": 8919,
      "Vietnamese": 8920,
      "environment": 8921,
      "environmental": 8922,
      "Chekho": 8923,
      "Chaplin": 8924,
      "Cherry": 8925,
      "Denis": 8926,
      "Demme": 8927,
      "Freddy": 8928,
      "Gaghan": 8929,
      "Hawke": 8930,
      "Hawaiian": 8931,
      "Jonathan": 8932,
      "MacDowell": 8933,
      "Rather": 8934,
      "Resident": 8935,
      "Tunis": 8936,
      "Tunney": 8937,
      "aaaa": 8938,
      "bombastic": 8939,
      "dutiful": 8940,
      "fifteen": 8941,
      "hallu": 8942,
      "jolt": 8943,
      "jolts": 8944,
      "massive": 8945,
      "tuned": 8946,
      "torture": 8947,
      "wedding": 8948,
      "thousand": 8949,
      "incessant": 8950,
      "inexplicable": 8951,
      "repellent": 8952,
      "received": 8953,
      "resembles": 8954,
      "redeeming": 8955,
      "organic": 8956,
      "alleged": 8957,
      "tolerance": 8958,
      "education": 8959,
      "educational": 8960,
      "iconoclast": 8961,
      "chuckle": 8962,
      "chuckles": 8963,
      "secret": 8964,
      "secrets": 8965,
      "raunchy": 8966,
      "loosely": 8967,
      "conjures": 8968,
      "consuming": 8969,
      "screwball": 8970,
      "tailor": 8971,
      "propaganda": 8972,
      "ignore": 8973,
      "audacity": 8974,
      "Chouraqui": 8975,
      "participants": 8976,
      "awards": 8977,
      "collectively": 8978,
      "Spirited": 8979,
      "breathes": 8980,
      "disturb": 8981,
      "disturbing": 8982,
      "maintaining": 8983,
      "Roberts": 8984,
      "dynamics": 8985,
      "destruction": 8986,
      "destructive": 8987,
      "journalism": 8988,
      "extravagant": 8989,
      "extravaganza": 8990,
      "repeatedly": 8991,
      "introduction": 8992,
      "guarantee": 8993,
      "Australian": 8994,
      "Australia": 8995,
      "Bowling": 8996,
      "Janice": 8997,
      "Jacquot": 8998,
      "Kennedy": 8999,
      "Lyn": 9000,
      "Lyne": 9001,
      "Silence": 9002,
      "Welsh": 9003,
      "brio": 9004,
      "evident": 9005,
      "evidence": 9006,
      "hatred": 9007,
      "snoo": 9008,
      "tropes": 9009,
      "volum": 9010,
      "anguish": 9011,
      "aliens": 9012,
      "arguments": 9013,
      "arresting": 9014,
      "stroke": 9015,
      "learning": 9016,
      "heights": 9017,
      "shifting": 9018,
      "expertly": 9019,
      "scares": 9020,
      "haphazard": 9021,
      "qualities": 9022,
      "aggressively": 9023,
      "renders": 9024,
      "planet": 9025,
      "collaboration": 9026,
      "paranoia": 9027,
      "Columbine": 9028,
      "schmaltz": 9029,
      "schmaltzy": 9030,
      "Delivers": 9031,
      "sanctimony": 9032,
      "sanctimonious": 9033,
      "sacrificing": 9034,
      "Hitchcockian": 9035,
      "economic": 9036,
      "adrenaline": 9037,
      "Affleck": 9038,
      "Audiard": 9039,
      "Dumas": 9040,
      "Diggs": 9041,
      "Lilia": 9042,
      "Mamet": 9043,
      "Memento": 9044,
      "Peploe": 9045,
      "Raymond": 9046,
      "Super": 9047,
      "Susan": 9048,
      "Twenty": 9049,
      "Tambor": 9050,
      "aesthetic": 9051,
      "bodice": 9052,
      "crosso": 9053,
      "crippled": 9054,
      "smack": 9055,
      "wisdom": 9056,
      "insecure": 9057,
      "infantile": 9058,
      "rejected": 9059,
      "enhances": 9060,
      "itzler": 9061,
      "strangeness": 9062,
      "assembled": 9063,
      "radiant": 9064,
      "defeated": 9065,
      "losers": 9066,
      "dopey": 9067,
      "Antonia": 9068,
      "insistent": 9069,
      "flamboyant": 9070,
      "cohesive": 9071,
      "disgusting": 9072,
      "impersonal": 9073,
      "partnership": 9074,
      "monotonous": 9075,
      "elevates": 9076,
      "valiantly": 9077,
      "Confessions": 9078,
      "legendary": 9079,
      "contemplation": 9080,
      "Juliette": 9081,
      "Terrific": 9082,
      "employment": 9083,
      "spontaneity": 9084,
      "Auteuil": 9085,
      "Before": 9086,
      "Capra": 9087,
      "Certainly": 9088,
      "Crane": 9089,
      "Club": 9090,
      "Eisenstein": 9091,
      "Foster": 9092,
      "Garcia": 9093,
      "Juan": 9094,
      "Kahlo": 9095,
      "Puts": 9096,
      "Pryor": 9097,
      "Psycholog": 9098,
      "Report": 9099,
      "Rubbo": 9100,
      "Skip": 9101,
      "Shadyac": 9102,
      "Zealand": 9103,
      "mundane": 9104,
      "nutty": 9105,
      "naughty": 9106,
      "wattage": 9107,
      "initial": 9108,
      "infectious": 9109,
      "inquisitive": 9110,
      "ancient": 9111,
      "relaxed": 9112,
      "enveloping": 9113,
      "thetically": 9114,
      "associated": 9115,
      "church": 9116,
      "champion": 9117,
      "unblinking": 9118,
      "lobby": 9119,
      "locales": 9120,
      "competition": 9121,
      "wholesome": 9122,
      "conveying": 9123,
      "thankfully": 9124,
      "updating": 9125,
      "intolerable": 9126,
      "assault": 9127,
      "graceless": 9128,
      "awakening": 9129,
      "misanthropic": 9130,
      "misogyny": 9131,
      "histrionics": 9132,
      "farcical": 9133,
      "animatronic": 9134,
      "Schnitzler": 9135,
      "depraved": 9136,
      "suffocating": 9137,
      "normally": 9138,
      "Combines": 9139,
      "panoramic": 9140,
      "pyrotechnics": 9141,
      "Prophecies": 9142,
      "infuriating": 9143,
      "limitations": 9144,
      "burdened": 9145,
      "Importance": 9146,
      "dishonest": 9147,
      "survivors": 9148,
      "circumstances": 9149,
      "Metropolis": 9150,
      "Olivier": 9151,
      "illuminating": 9152,
      "narcissism": 9153,
      "claustrophobic": 9154,
      "Griffiths": 9155,
      "Elizabeth": 9156,
      "arbitrary": 9157,
      "Thornberrys": 9158,
      "Apted": 9159,
      "Apparently": 9160,
      "Besson": 9161,
      "Bielinsky": 9162,
      "Binoche": 9163,
      "Bettany": 9164,
      "CIA": 9165,
      "Cinematic": 9166,
      "Cooper": 9167,
      "Crocodile": 9168,
      "Diaz": 9169,
      "Dangerous": 9170,
      "Emperor": 9171,
      "Fingered": 9172,
      "Fundamentals": 9173,
      "Fiennes": 9174,
      "Hitler": 9175,
      "Huston": 9176,
      "Hewitt": 9177,
      "Hashiguch": 9178,
      "Hickenlooper": 9179,
      "Ichi": 9180,
      "Imamura": 9181,
      "Iwai": 9182,
      "Janklowicz": 9183,
      "Kubrick": 9184,
      "Klein": 9185,
      "Kafka": 9186,
      "Kosashvili": 9187,
      "Meyjes": 9188,
      "Muccino": 9189,
      "Nachtwe": 9190,
      "Naipaul": 9191,
      "Nettelbeck": 9192,
      "Nemesis": 9193,
      "Oleander": 9194,
      "Original": 9195,
      "Pellington": 9196,
      "Rumor": 9197,
      "Sundance": 9198,
      "Tadpole": 9199,
      "Teacher": 9200,
      "Tavernier": 9201,
      "Uneven": 9202,
      "Viewers": 9203,
      "Wertmull": 9204,
      "Wollter": 9205,
      "austerity": 9206,
      "breadth": 9207,
      "duration": 9208,
      "daughters": 9209,
      "hedonistic": 9210,
      "jerking": 9211,
      "junior": 9212,
      "jazzy": 9213,
      "kitchen": 9214,
      "mouthed": 9215,
      "pessim": 9216,
      "piercing": 9217,
      "rattling": 9218,
      "rhetoric": 9219,
      "sardonic": 9220,
      "tumult": 9221,
      "trenchant": 9222,
      "wacky": 9223,
      "xploitation": 9224,
      "zombie": 9225,
      "information": 9226,
      "innuendo": 9227,
      "anachronistic": 9228,
      "recipe": 9229,
      "enigmatic": 9230,
      "orthodox": 9231,
      "albeit": 9232,
      "tomorrow": 9233,
      "heavily": 9234,
      "beguiling": 9235,
      "unconditional": 9236,
      "macabre": 9237,
      "detective": 9238,
      "deprecating": 9239,
      "determine": 9240,
      "laudable": 9241,
      "shoddy": 9242,
      "shenanigans": 9243,
      "odyssey": 9244,
      "permeates": 9245,
      "scruffy": 9246,
      "quieter": 9247,
      "program": 9248,
      "indictment": 9249,
      "fundament": 9250,
      "boobs": 9251,
      "megaplex": 9252,
      "insignific": 9253,
      "obstacles": 9254,
      "acknowled": 9255,
      "interpretation": 9256,
      "impenetrable": 9257,
      "Invincible": 9258,
      "Studios": 9259,
      "Strangers": 9260,
      "reluctant": 9261,
      "Undisputed": 9262,
      "psychopathic": 9263,
      "Schepisi": 9264,
      "Schaeffer": 9265,
      "Schumacher": 9266,
      "refugees": 9267,
      "Margarita": 9268,
      "extraordinarily": 9269,
      "masculine": 9270,
      "infomercial": 9271,
      "grotesque": 9272,
      "negligible": 9273,
      "incongruous": 9274,
      "gratuitous": 9275,
      "Chekhov": 9276,
      "iconoclastic": 9277,
      "crossover": 9278,
      "Hashiguchi": 9279,
[...]
